{
  "version": "1.0",
  "truncation": {
    "direction": "Right",
    "max_length": 98,
    "strategy": "LongestFirst",
    "stride": 0
  },
  "padding": null,
  "added_tokens": [
    {
      "id": 0,
      "content": "[CLS]",
      "single_word": false,
      "lstrip": false,
      "rstrip": false,
      "normalized": false,
      "special": true
    },
    {
      "id": 1,
      "content": "[SEP]",
      "single_word": false,
      "lstrip": false,
      "rstrip": false,
      "normalized": false,
      "special": true
    },
    {
      "id": 2,
      "content": "[PAD]",
      "single_word": false,
      "lstrip": false,
      "rstrip": false,
      "normalized": false,
      "special": true
    },
    {
      "id": 3,
      "content": "[UNK]",
      "single_word": false,
      "lstrip": false,
      "rstrip": false,
      "normalized": false,
      "special": true
    },
    {
      "id": 4,
      "content": "[MASK]",
      "single_word": false,
      "lstrip": false,
      "rstrip": false,
      "normalized": false,
      "special": true
    }
  ],
  "normalizer": {
    "type": "BertNormalizer",
    "clean_text": true,
    "handle_chinese_chars": true,
    "strip_accents": false,
    "lowercase": false
  },
  "pre_tokenizer": {
    "type": "BertPreTokenizer"
  },
  "post_processor": {
    "type": "BertProcessing",
    "sep": [
      "[SEP]",
      1
    ],
    "cls": [
      "[CLS]",
      0
    ]
  },
  "decoder": null,
  "model": {
    "type": "WordPiece",
    "unk_token": "[UNK]",
    "continuing_subword_prefix": "##",
    "max_input_chars_per_word": 100,
    "vocab": {
      "[CLS]": 0,
      "[SEP]": 1,
      "[PAD]": 2,
      "[UNK]": 3,
      "[MASK]": 4,
      "!": 5,
      "\"": 6,
      "$": 7,
      "&": 8,
      "'": 9,
      "(": 10,
      ")": 11,
      "*": 12,
      ",": 13,
      "-": 14,
      ".": 15,
      "/": 16,
      "0": 17,
      "1": 18,
      "2": 19,
      "3": 20,
      "4": 21,
      "5": 22,
      "6": 23,
      "7": 24,
      "8": 25,
      "9": 26,
      ":": 27,
      ";": 28,
      "<": 29,
      ">": 30,
      "?": 31,
      "A": 32,
      "B": 33,
      "C": 34,
      "D": 35,
      "E": 36,
      "F": 37,
      "G": 38,
      "H": 39,
      "I": 40,
      "J": 41,
      "K": 42,
      "L": 43,
      "M": 44,
      "N": 45,
      "O": 46,
      "P": 47,
      "Q": 48,
      "R": 49,
      "S": 50,
      "T": 51,
      "U": 52,
      "V": 53,
      "W": 54,
      "X": 55,
      "Y": 56,
      "Z": 57,
      "`": 58,
      "a": 59,
      "b": 60,
      "c": 61,
      "d": 62,
      "e": 63,
      "f": 64,
      "g": 65,
      "h": 66,
      "i": 67,
      "j": 68,
      "k": 69,
      "l": 70,
      "m": 71,
      "n": 72,
      "o": 73,
      "p": 74,
      "q": 75,
      "r": 76,
      "s": 77,
      "t": 78,
      "u": 79,
      "v": 80,
      "w": 81,
      "x": 82,
      "y": 83,
      "z": 84,
      "{": 85,
      "}": 86,
      "à": 87,
      "é": 88,
      "í": 89,
      "##o": 90,
      "##r": 91,
      "##k": 92,
      "##e": 93,
      "##s": 94,
      "##u": 95,
      "##a": 96,
      "##i": 97,
      "##w": 98,
      "##t": 99,
      "##n": 100,
      "##y": 101,
      "##l": 102,
      "##g": 103,
      "##c": 104,
      "##h": 105,
      "##I": 106,
      "##K": 107,
      "##E": 108,
      "##S": 109,
      "##v": 110,
      "##x": 111,
      "##p": 112,
      "##d": 113,
      "##b": 114,
      "##f": 115,
      "##9": 116,
      "##5": 117,
      "##m": 118,
      "##é": 119,
      "##N": 120,
      "##D": 121,
      "##0": 122,
      "##z": 123,
      "##O": 124,
      "##V": 125,
      "##2": 126,
      "##L": 127,
      "##3": 128,
      "##j": 129,
      "##q": 130,
      "##A": 131,
      "##Y": 132,
      "##Q": 133,
      "##P": 134,
      "##F": 135,
      "##T": 136,
      "##R": 137,
      "##H": 138,
      "##U": 139,
      "##7": 140,
      "##C": 141,
      "##1": 142,
      "##G": 143,
      "##B": 144,
      "##M": 145,
      "##6": 146,
      "##W": 147,
      "##8": 148,
      "##4": 149,
      "##à": 150,
      "##X": 151,
      "##í": 152,
      "th": 153,
      "the": 154,
      "##er": 155,
      "##in": 156,
      "##en": 157,
      "##or": 158,
      "##es": 159,
      "##at": 160,
      "##nd": 161,
      "##ing": 162,
      "##ou": 163,
      "##ed": 164,
      "##on": 165,
      "##is": 166,
      "to": 167,
      "##al": 168,
      "##ar": 169,
      "of": 170,
      "and": 171,
      "##ly": 172,
      "##it": 173,
      "##an": 174,
      "##re": 175,
      "##as": 176,
      "in": 177,
      "br": 178,
      "##om": 179,
      "##il": 180,
      "##ct": 181,
      "is": 182,
      "##ot": 183,
      "it": 184,
      "##ic": 185,
      "##ie": 186,
      "##le": 187,
      "##ut": 188,
      "##ov": 189,
      "be": 190,
      "##st": 191,
      "##ad": 192,
      "##he": 193,
      "on": 194,
      "that": 195,
      "mov": 196,
      "##ow": 197,
      "re": 198,
      "this": 199,
      "##ent": 200,
      "wh": 201,
      "##ve": 202,
      "##et": 203,
      "##ke": 204,
      "movie": 205,
      "##ay": 206,
      "##ll": 207,
      "st": 208,
      "for": 209,
      "as": 210,
      "##ith": 211,
      "was": 212,
      "##gh": 213,
      "##ion": 214,
      "##ch": 215,
      "with": 216,
      "##se": 217,
      "an": 218,
      "##id": 219,
      "##ld": 220,
      "se": 221,
      "##ce": 222,
      "##am": 223,
      "##her": 224,
      "The": 225,
      "fil": 226,
      "##ir": 227,
      "li": 228,
      "##ri": 229,
      "##ally": 230,
      "##oo": 231,
      "##ver": 232,
      "film": 233,
      "you": 234,
      "sc": 235,
      "##ess": 236,
      "ha": 237,
      "not": 238,
      "##im": 239,
      "but": 240,
      "sh": 241,
      "##ra": 242,
      "act": 243,
      "##ck": 244,
      "##ble": 245,
      "her": 246,
      "##ter": 247,
      "##ome": 248,
      "##ul": 249,
      "##ust": 250,
      "##em": 251,
      "##ro": 252,
      "##ould": 253,
      "are": 254,
      "have": 255,
      "##est": 256,
      "wor": 257,
      "##ain": 258,
      "##el": 259,
      "##ur": 260,
      "##un": 261,
      "like": 262,
      "com": 263,
      "##ers": 264,
      "##ough": 265,
      "do": 266,
      "so": 267,
      "at": 268,
      "pl": 269,
      "##ake": 270,
      "ch": 271,
      "he": 272,
      "##pe": 273,
      "##ff": 274,
      "##ill": 275,
      "con": 276,
      "de": 277,
      "##ies": 278,
      "##out": 279,
      "by": 280,
      "or": 281,
      "##us": 282,
      "##ak": 283,
      "##pt": 284,
      "##ous": 285,
      "Th": 286,
      "can": 287,
      "some": 288,
      "all": 289,
      "di": 290,
      "ex": 291,
      "##ag": 292,
      "##ist": 293,
      "me": 294,
      "su": 295,
      "we": 296,
      "ab": 297,
      "bad": 298,
      "just": 299,
      "no": 300,
      "up": 301,
      "she": 302,
      "##act": 303,
      "##ven": 304,
      "##ast": 305,
      "one": 306,
      "##ood": 307,
      "en": 308,
      "##th": 309,
      "po": 310,
      "##um": 311,
      "they": 312,
      "##ore": 313,
      "##ant": 314,
      "##ade": 315,
      "fr": 316,
      "get": 317,
      "##ud": 318,
      "##pp": 319,
      "##atch": 320,
      "un": 321,
      "##ound": 322,
      "scen": 323,
      "##au": 324,
      "##and": 325,
      "##ind": 326,
      "##ick": 327,
      "any": 328,
      "his": 329,
      "out": 330,
      "pro": 331,
      "##ive": 332,
      "##one": 333,
      "who": 334,
      "##ght": 335,
      "It": 336,
      "has": 337,
      "tim": 338,
      "##ost": 339,
      "##ack": 340,
      "##ment": 341,
      "there": 342,
      "##art": 343,
      "see": 344,
      "ne": 345,
      "##op": 346,
      "##ful": 347,
      "##all": 348,
      "al": 349,
      "even": 350,
      "##ol": 351,
      "##ious": 352,
      "when": 353,
      "##ame": 354,
      "about": 355,
      "from": 356,
      "##able": 357,
      "##ig": 358,
      "##ate": 359,
      "my": 360,
      "##ect": 361,
      "##ation": 362,
      "only": 363,
      "##ook": 364,
      "go": 365,
      "if": 366,
      "pre": 367,
      "tr": 368,
      "watch": 369,
      "##ually": 370,
      "##ine": 371,
      "show": 372,
      "could": 373,
      "had": 374,
      "le": 375,
      "made": 376,
      "##te": 377,
      "really": 378,
      "This": 379,
      "time": 380,
      "##ty": 381,
      "##end": 382,
      "##ory": 383,
      "##ard": 384,
      "##other": 385,
      "##ich": 386,
      "movies": 387,
      "what": 388,
      "plot": 389,
      "char": 390,
      "eff": 391,
      "fl": 392,
      "kn": 393,
      "make": 394,
      "##ight": 395,
      "thr": 396,
      "##ery": 397,
      "charact": 398,
      "fa": 399,
      "##for": 400,
      "##ong": 401,
      "##rect": 402,
      "int": 403,
      "been": 404,
      "know": 405,
      "man": 406,
      "per": 407,
      "would": 408,
      "##ap": 409,
      "##get": 410,
      "##ci": 411,
      "than": 412,
      "##ere": 413,
      "##our": 414,
      "story": 415,
      "ag": 416,
      "good": 417,
      "##ond": 418,
      "its": 419,
      "direct": 420,
      "Wh": 421,
      "fe": 422,
      "##rit": 423,
      "##ab": 424,
      "##ther": 425,
      "##ving": 426,
      "##ors": 427,
      "##ans": 428,
      "##ass": 429,
      "bec": 430,
      "##ays": 431,
      "comp": 432,
      "does": 433,
      "aw": 434,
      "don": 435,
      "ever": 436,
      "look": 437,
      "over": 438,
      "pr": 439,
      "sp": 440,
      "very": 441,
      "##ob": 442,
      "##ure": 443,
      "##uch": 444,
      "them": 445,
      "##arr": 446,
      "##ars": 447,
      "off": 448,
      "bet": 449,
      "seem": 450,
      "through": 451,
      "did": 452,
      "more": 453,
      "sa": 454,
      "##os": 455,
      "##og": 456,
      "##hing": 457,
      "##pl": 458,
      "##ink": 459,
      "##ort": 460,
      "##edi": 461,
      "which": 462,
      "work": 463,
      "##age": 464,
      "##ause": 465,
      "And": 466,
      "fir": 467,
      "##od": 468,
      "##ell": 469,
      "##ever": 470,
      "thing": 471,
      "##int": 472,
      "##ated": 473,
      "##ish": 474,
      "##ite": 475,
      "##here": 476,
      "scenes": 477,
      "pret": 478,
      "effect": 479,
      "ar": 480,
      "ad": 481,
      "bl": 482,
      "hor": 483,
      "min": 484,
      "mak": 485,
      "much": 486,
      "##ue": 487,
      "##iv": 488,
      "##ne": 489,
      "##per": 490,
      "##ence": 491,
      "##ance": 492,
      "##ical": 493,
      "##sel": 494,
      "your": 495,
      "actually": 496,
      "As": 497,
      "most": 498,
      "other": 499,
      "tw": 500,
      "und": 501,
      "##ual": 502,
      "##ge": 503,
      "##reat": 504,
      "##rap": 505,
      "acting": 506,
      "##form": 507,
      "into": 508,
      "because": 509,
      "first": 510,
      "pretty": 511,
      "He": 512,
      "In": 513,
      "There": 514,
      "back": 515,
      "cl": 516,
      "find": 517,
      "hum": 518,
      "im": 519,
      "part": 520,
      "ser": 521,
      "ter": 522,
      "us": 523,
      "writ": 524,
      "##ry": 525,
      "##if": 526,
      "##les": 527,
      "##less": 528,
      "##pen": 529,
      "then": 530,
      "##ity": 531,
      "inv": 532,
      "##ile": 533,
      "bel": 534,
      "rem": 535,
      "##ide": 536,
      "scre": 537,
      "characters": 538,
      "seems": 539,
      "Ch": 540,
      "how": 541,
      "kill": 542,
      "ro": 543,
      "spe": 544,
      "will": 545,
      "ye": 546,
      "##oy": 547,
      "##ss": 548,
      "##ting": 549,
      "##ced": 550,
      "##fter": 551,
      "##qu": 552,
      "think": 553,
      "##ating": 554,
      "##ction": 555,
      "##iew": 556,
      "##rible": 557,
      "here": 558,
      "worst": 559,
      "again": 560,
      "effects": 561,
      "##self": 562,
      "under": 563,
      "But": 564,
      "If": 565,
      "bud": 566,
      "end": 567,
      "gu": 568,
      "low": 569,
      "must": 570,
      "pe": 571,
      "wom": 572,
      "way": 573,
      "were": 574,
      "##ks": 575,
      "##so": 576,
      "##ness": 577,
      "##du": 578,
      "##be": 579,
      "though": 580,
      "their": 581,
      "##inal": 582,
      "##orn": 583,
      "##ary": 584,
      "ins": 585,
      "inter": 586,
      "##ice": 587,
      "##own": 588,
      "seen": 589,
      "##amp": 590,
      "films": 591,
      "scene": 592,
      "better": 593,
      "peop": 594,
      "An": 595,
      "am": 596,
      "fun": 597,
      "gr": 598,
      "may": 599,
      "sit": 600,
      "sound": 601,
      "##ror": 602,
      "##ep": 603,
      "##up": 604,
      "##we": 605,
      "##ves": 606,
      "##ild": 607,
      "##ically": 608,
      "##ute": 609,
      "being": 610,
      "real": 611,
      "another": 612,
      "##ript": 613,
      "##ments": 614,
      "belie": 615,
      "screen": 616,
      "budget": 617,
      "people": 618,
      "10": 619,
      "How": 620,
      "ap": 621,
      "che": 622,
      "him": 623,
      "ob": 624,
      "##ress": 625,
      "##tain": 626,
      "##cc": 627,
      "##vious": 628,
      "while": 629,
      "##vel": 630,
      "script": 631,
      "actors": 632,
      "##ult": 633,
      "play": 634,
      "produ": 635,
      "perform": 636,
      "##cial": 637,
      "after": 638,
      "des": 639,
      "down": 640,
      "great": 641,
      "id": 642,
      "lov": 643,
      "qu": 644,
      "sl": 645,
      "te": 646,
      "tra": 647,
      "want": 648,
      "##ead": 649,
      "##ull": 650,
      "##uck": 651,
      "##ip": 652,
      "##ian": 653,
      "##wn": 654,
      "##yb": 655,
      "##ces": 656,
      "##hy": 657,
      "##ather": 658,
      "##edy": 659,
      "too": 660,
      "##are": 661,
      "##omb": 662,
      "##cept": 663,
      "should": 664,
      "##pect": 665,
      "well": 666,
      "enough": 667,
      "##augh": 668,
      "also": 669,
      "director": 670,
      "comple": 671,
      "saw": 672,
      "two": 673,
      "imp": 674,
      "invol": 675,
      "interest": 676,
      "believe": 677,
      "19": 678,
      "St": 679,
      "call": 680,
      "fact": 681,
      "gen": 682,
      "old": 683,
      "open": 684,
      "put": 685,
      "say": 686,
      "ve": 687,
      "##ose": 688,
      "##old": 689,
      "##ew": 690,
      "##ace": 691,
      "##ire": 692,
      "##ience": 693,
      "##tle": 694,
      "##tra": 695,
      "##ning": 696,
      "##lit": 697,
      "##cing": 698,
      "##ved": 699,
      "##ale": 700,
      "##ark": 701,
      "##omet": 702,
      "##ils": 703,
      "##utes": 704,
      "still": 705,
      "##irl": 706,
      "##blem": 707,
      "##thing": 708,
      "problem": 709,
      "character": 710,
      "many": 711,
      "When": 712,
      "##ably": 713,
      "every": 714,
      "horror": 715,
      "making": 716,
      "special": 717,
      "years": 718,
      "thought": 719,
      "However": 720,
      "complete": 721,
      "Re": 722,
      "So": 723,
      "Se": 724,
      "To": 725,
      "aud": 726,
      "app": 727,
      "bu": 728,
      "bor": 729,
      "done": 730,
      "far": 731,
      "got": 732,
      "kind": 733,
      "lit": 734,
      "long": 735,
      "laugh": 736,
      "mis": 737,
      "mus": 738,
      "pie": 739,
      "pain": 740,
      "somet": 741,
      "tit": 742,
      "tak": 743,
      "vis": 744,
      "view": 745,
      "zomb": 746,
      "##oc": 747,
      "##ea": 748,
      "##ach": 749,
      "##ia": 750,
      "##iz": 751,
      "##ger": 752,
      "##vent": 753,
      "##pir": 754,
      "##ber": 755,
      "##org": 756,
      "##ater": 757,
      "##ings": 758,
      "##ison": 759,
      "##ree": 760,
      "##ase": 761,
      "##ason": 762,
      "read": 763,
      "reason": 764,
      "str": 765,
      "##rig": 766,
      "nothing": 767,
      "shot": 768,
      "action": 769,
      "cont": 770,
      "dec": 771,
      "sub": 772,
      "point": 773,
      "whole": 774,
      "need": 775,
      "##ends": 776,
      "doesn": 777,
      "around": 778,
      "minutes": 779,
      "role": 780,
      "woman": 781,
      "##yborg": 782,
      "At": 783,
      "Al": 784,
      "Pal": 785,
      "Well": 786,
      "cle": 787,
      "come": 788,
      "cyborg": 789,
      "ele": 790,
      "gl": 791,
      "ind": 792,
      "list": 793,
      "main": 794,
      "mist": 795,
      "res": 796,
      "run": 797,
      "tur": 798,
      "won": 799,
      "##ock": 800,
      "##kes": 801,
      "##ub": 802,
      "##az": 803,
      "##apt": 804,
      "##ial": 805,
      "##ict": 806,
      "##gg": 807,
      "##vo": 808,
      "##fore": 809,
      "##mer": 810,
      "##joy": 811,
      "these": 812,
      "##ord": 813,
      "##ath": 814,
      "##arious": 815,
      "brother": 816,
      "##ott": 817,
      "before": 818,
      "rev": 819,
      "##ention": 820,
      "start": 821,
      "stup": 822,
      "lif": 823,
      "word": 824,
      "##eless": 825,
      "That": 826,
      "diff": 827,
      "enjoy": 828,
      "anyone": 829,
      "goes": 830,
      "try": 831,
      "watched": 832,
      "least": 833,
      "few": 834,
      "feel": 835,
      "##assic": 836,
      "away": 837,
      "awful": 838,
      "##osed": 839,
      "##ody": 840,
      "horrible": 841,
      "makes": 842,
      "maybe": 843,
      "obvious": 844,
      "music": 845,
      "piece": 846,
      "##riginal": 847,
      "Palest": 848,
      "On": 849,
      "Rick": 850,
      "TV": 851,
      "best": 852,
      "book": 853,
      "co": 854,
      "cr": 855,
      "cast": 856,
      "came": 857,
      "cour": 858,
      "crap": 859,
      "dr": 860,
      "el": 861,
      "fri": 862,
      "fake": 863,
      "fant": 864,
      "girl": 865,
      "hil": 866,
      "hard": 867,
      "ill": 868,
      "ke": 869,
      "kid": 870,
      "let": 871,
      "less": 872,
      "lack": 873,
      "mot": 874,
      "now": 875,
      "own": 876,
      "original": 877,
      "pass": 878,
      "red": 879,
      "rather": 880,
      "sch": 881,
      "sur": 882,
      "tal": 883,
      "tri": 884,
      "take": 885,
      "tell": 886,
      "##uff": 887,
      "##aw": 888,
      "##vin": 889,
      "##xt": 890,
      "##bably": 891,
      "##ft": 892,
      "##most": 893,
      "those": 894,
      "##ert": 895,
      "##ins": 896,
      "##ens": 897,
      "##esh": 898,
      "##ative": 899,
      "##oup": 900,
      "##ise": 901,
      "##arly": 902,
      "##arent": 903,
      "##asy": 904,
      "##ash": 905,
      "inc": 906,
      "inst": 907,
      "##ctable": 908,
      "##stand": 909,
      "rel": 910,
      "rec": 911,
      "why": 912,
      "where": 913,
      "##ided": 914,
      "##ident": 915,
      "They": 916,
      "##ool": 917,
      "##imp": 918,
      "worth": 919,
      "comm": 920,
      "comedy": 921,
      "def": 922,
      "##ush": 923,
      "dial": 924,
      "supp": 925,
      "abs": 926,
      "ent": 927,
      "poor": 928,
      "poss": 929,
      "new": 930,
      "almost": 931,
      "##ations": 932,
      "going": 933,
      "watching": 934,
      "couldn": 935,
      "effort": 936,
      "##aps": 937,
      "predi": 938,
      "didn": 939,
      "add": 940,
      "##ney": 941,
      "classic": 942,
      "humor": 943,
      "terrible": 944,
      "##ife": 945,
      "Char": 946,
      "killer": 947,
      "guy": 948,
      "appe": 949,
      "##velop": 950,
      "interesting": 951,
      "completely": 952,
      "little": 953,
      "something": 954,
      "life": 955,
      "Palestin": 956,
      "instead": 957,
      "predictable": 958,
      "Ar": 959,
      "Aw": 960,
      "Bri": 961,
      "Don": 962,
      "Dick": 963,
      "Ever": 964,
      "Gold": 965,
      "Is": 966,
      "Jo": 967,
      "LV": 968,
      "Mob": 969,
      "NO": 970,
      "Pr": 971,
      "She": 972,
      "You": 973,
      "bas": 974,
      "bot": 975,
      "cra": 976,
      "camp": 977,
      "dis": 978,
      "em": 979,
      "found": 980,
      "fall": 981,
      "hour": 982,
      "jo": 983,
      "lin": 984,
      "last": 985,
      "mom": 986,
      "mess": 987,
      "medi": 988,
      "narr": 989,
      "porn": 990,
      "rent": 991,
      "same": 992,
      "wond": 993,
      "wife": 994,
      "##ox": 995,
      "##king": 996,
      "##ave": 997,
      "##app": 998,
      "##ier": 999,
      "##ily": 1000,
      "##iful": 1001,
      "##ny": 1002,
      "##ned": 1003,
      "##led": 1004,
      "##lus": 1005,
      "##gr": 1006,
      "##han": 1007,
      "##haps": 1008,
      "##bly": 1009,
      "##fect": 1010,
      "##men": 1011,
      "##man": 1012,
      "##ja": 1013,
      "##ering": 1014,
      "##erent": 1015,
      "##ense": 1016,
      "##esident": 1017,
      "##oun": 1018,
      "##ons": 1019,
      "##ony": 1020,
      "top": 1021,
      "##aling": 1022,
      "##its": 1023,
      "##ances": 1024,
      "##rem": 1025,
      "##read": 1026,
      "itself": 1027,
      "##leas": 1028,
      "##utiful": 1029,
      "stage": 1030,
      "ass": 1031,
      "##ither": 1032,
      "wasn": 1033,
      "waste": 1034,
      "##ions": 1035,
      "hand": 1036,
      "##rael": 1037,
      "##ember": 1038,
      "##uring": 1039,
      "comments": 1040,
      "##erson": 1041,
      "doing": 1042,
      "cons": 1043,
      "convin": 1044,
      "death": 1045,
      "expect": 1046,
      "means": 1047,
      "such": 1048,
      "gets": 1049,
      "unless": 1050,
      "probably": 1051,
      "times": 1052,
      "##ately": 1053,
      "shows": 1054,
      "flesh": 1055,
      "fail": 1056,
      "perfect": 1057,
      "looked": 1058,
      "betwe": 1059,
      "##ograp": 1060,
      "##ival": 1061,
      "human": 1062,
      "series": 1063,
      "writer": 1064,
      "remember": 1065,
      "understand": 1066,
      "situ": 1067,
      "production": 1068,
      "performance": 1069,
      "idea": 1070,
      "love": 1071,
      "quite": 1072,
      "problems": 1073,
      "audience": 1074,
      "bored": 1075,
      "painful": 1076,
      "title": 1077,
      "visual": 1078,
      "##ize": 1079,
      "mistake": 1080,
      "review": 1081,
      "stupid": 1082,
      "different": 1083,
      "hilarious": 1084,
      "dialog": 1085,
      "supposed": 1086,
      "entire": 1087,
      "poorly": 1088,
      "Charles": 1089,
      "Brian": 1090,
      "Israel": 1091,
      "Moby": 1092,
      "lines": 1093,
      "between": 1094,
      "20": 1095,
      "Avo": 1096,
      "Be": 1097,
      "Bro": 1098,
      "Blit": 1099,
      "DV": 1100,
      "Jew": 1101,
      "Mad": 1102,
      "Not": 1103,
      "One": 1104,
      "Omen": 1105,
      "Pa": 1106,
      "Rome": 1107,
      "Son": 1108,
      "Spir": 1109,
      "We": 1110,
      "Was": 1111,
      "bit": 1112,
      "bother": 1113,
      "cin": 1114,
      "cam": 1115,
      "capt": 1116,
      "days": 1117,
      "ey": 1118,
      "eating": 1119,
      "event": 1120,
      "gay": 1121,
      "gun": 1122,
      "give": 1123,
      "hon": 1124,
      "hop": 1125,
      "ll": 1126,
      "men": 1127,
      "mil": 1128,
      "mind": 1129,
      "male": 1130,
      "occ": 1131,
      "pri": 1132,
      "rid": 1133,
      "rate": 1134,
      "sle": 1135,
      "set": 1136,
      "swe": 1137,
      "use": 1138,
      "vide": 1139,
      "wr": 1140,
      "wish": 1141,
      "wild": 1142,
      "yet": 1143,
      "##oll": 1144,
      "##oint": 1145,
      "##ron": 1146,
      "##rist": 1147,
      "##ked": 1148,
      "##ex": 1149,
      "##ef": 1150,
      "##eem": 1151,
      "##sc": 1152,
      "##sen": 1153,
      "##spe": 1154,
      "##ail": 1155,
      "##io": 1156,
      "##ien": 1157,
      "##ible": 1158,
      "##way": 1159,
      "##ts": 1160,
      "##ten": 1161,
      "##not": 1162,
      "##yp": 1163,
      "##lic": 1164,
      "##cy": 1165,
      "##cut": 1166,
      "##che": 1167,
      "##hn": 1168,
      "##hat": 1169,
      "##hip": 1170,
      "##vir": 1171,
      "three": 1172,
      "##era": 1173,
      "##ered": 1174,
      "##ouse": 1175,
      "##ism": 1176,
      "tot": 1177,
      "##alk": 1178,
      "##ared": 1179,
      "##otent": 1180,
      "##icul": 1181,
      "##iel": 1182,
      "star": 1183,
      "stri": 1184,
      "stand": 1185,
      "##ches": 1186,
      "sever": 1187,
      "sequ": 1188,
      "##amed": 1189,
      "##ird": 1190,
      "happ": 1191,
      "having": 1192,
      "##ime": 1193,
      "##rop": 1194,
      "##ross": 1195,
      "worse": 1196,
      "##ured": 1197,
      "##unk": 1198,
      "comment": 1199,
      "att": 1200,
      "hell": 1201,
      "conf": 1202,
      "develop": 1203,
      "Then": 1204,
      "somew": 1205,
      "exper": 1206,
      "except": 1207,
      "sure": 1208,
      "badly": 1209,
      "enter": 1210,
      "post": 1211,
      "anything": 1212,
      "never": 1213,
      "trans": 1214,
      "lead": 1215,
      "face": 1216,
      "##fort": 1217,
      "manag": 1218,
      "Why": 1219,
      "throughout": 1220,
      "said": 1221,
      "##play": 1222,
      "serious": 1223,
      "usually": 1224,
      "year": 1225,
      "ended": 1226,
      "guess": 1227,
      "women": 1228,
      "Any": 1229,
      "funny": 1230,
      "check": 1231,
      "idi": 1232,
      "slow": 1233,
      "impr": 1234,
      "involved": 1235,
      "laughs": 1236,
      "zombie": 1237,
      "decided": 1238,
      "cyborgs": 1239,
      "trying": 1240,
      "course": 1241,
      "else": 1242,
      "friends": 1243,
      "school": 1244,
      "surv": 1245,
      "commun": 1246,
      "Palestinian": 1247,
      "John": 1248,
      "both": 1249,
      "moment": 1250,
      "narrative": 1251,
      "Avoid": 1252,
      "Blithe": 1253,
      "DVD": 1254,
      "Sonja": 1255,
      "Spirit": 1256,
      "cinem": 1257,
      "camera": 1258,
      "honest": 1259,
      "video": 1260,
      "All": 1261,
      "Br": 1262,
      "Bl": 1263,
      "El": 1264,
      "Get": 1265,
      "Gab": 1266,
      "Ha": 1267,
      "Harr": 1268,
      "IV": 1269,
      "Lu": 1270,
      "Let": 1271,
      "Mc": 1272,
      "Most": 1273,
      "Per": 1274,
      "Rut": 1275,
      "Ste": 1276,
      "Trem": 1277,
      "Wils": 1278,
      "ac": 1279,
      "acc": 1280,
      "bat": 1281,
      "big": 1282,
      "cer": 1283,
      "cre": 1284,
      "cut": 1285,
      "coup": 1286,
      "die": 1287,
      "det": 1288,
      "dist": 1289,
      "dum": 1290,
      "ed": 1291,
      "either": 1292,
      "espe": 1293,
      "fin": 1294,
      "fat": 1295,
      "fam": 1296,
      "full": 1297,
      "hal": 1298,
      "hit": 1299,
      "hom": 1300,
      "hel": 1301,
      "lat": 1302,
      "lar": 1303,
      "lot": 1304,
      "line": 1305,
      "mo": 1306,
      "mone": 1307,
      "might": 1308,
      "mark": 1309,
      "nor": 1310,
      "nov": 1311,
      "night": 1312,
      "nice": 1313,
      "our": 1314,
      "ph": 1315,
      "par": 1316,
      "pick": 1317,
      "pull": 1318,
      "potent": 1319,
      "qual": 1320,
      "right": 1321,
      "sk": 1322,
      "sm": 1323,
      "sin": 1324,
      "sort": 1325,
      "simp": 1326,
      "sense": 1327,
      "tou": 1328,
      "val": 1329,
      "##oice": 1330,
      "##riel": 1331,
      "##ecut": 1332,
      "##uct": 1333,
      "##ugg": 1334,
      "##ac": 1335,
      "##ah": 1336,
      "##autiful": 1337,
      "##ike": 1338,
      "##ways": 1339,
      "##ton": 1340,
      "##til": 1341,
      "##ng": 1342,
      "##ner": 1343,
      "##ling": 1344,
      "##gin": 1345,
      "##cat": 1346,
      "##cond": 1347,
      "##cott": 1348,
      "##ER": 1349,
      "##point": 1350,
      "##bo": 1351,
      "##fic": 1352,
      "##mit": 1353,
      "##mak": 1354,
      "thin": 1355,
      "##inite": 1356,
      "##enn": 1357,
      "##ening": 1358,
      "##ened": 1359,
      "##atograp": 1360,
      "##edic": 1361,
      "##isand": 1362,
      "##ank": 1363,
      "##reci": 1364,
      "##reisand": 1365,
      "##omm": 1366,
      "##ctive": 1367,
      "isn": 1368,
      "##ics": 1369,
      "##ican": 1370,
      "##lect": 1371,
      "##uter": 1372,
      "##ove": 1373,
      "beautiful": 1374,
      "##stant": 1375,
      "##owed": 1376,
      "ref": 1377,
      "##ets": 1378,
      "starr": 1379,
      "form": 1380,
      "second": 1381,
      "##ceed": 1382,
      "##ames": 1383,
      "light": 1384,
      "living": 1385,
      "filmmak": 1386,
      "short": 1387,
      "actor": 1388,
      "actual": 1389,
      "##emand": 1390,
      "world": 1391,
      "##elt": 1392,
      "##elie": 1393,
      "##ung": 1394,
      "##unately": 1395,
      "comes": 1396,
      "plays": 1397,
      "head": 1398,
      "conc": 1399,
      "concept": 1400,
      "dev": 1401,
      "##outh": 1402,
      "##akes": 1403,
      "##aking": 1404,
      "cannot": 1405,
      "died": 1406,
      "execut": 1407,
      "super": 1408,
      "wee": 1409,
      "##though": 1410,
      "polit": 1411,
      "##ude": 1412,
      "until": 1413,
      "next": 1414,
      "along": 1415,
      "always": 1416,
      "##olute": 1417,
      "##ign": 1418,
      "myself": 1419,
      "god": 1420,
      "previous": 1421,
      "trash": 1422,
      "level": 1423,
      "left": 1424,
      "##ards": 1425,
      "flaw": 1426,
      "fails": 1427,
      "knows": 1428,
      "##gether": 1429,
      "##cially": 1430,
      "##abor": 1431,
      "looks": 1432,
      "spo": 1433,
      "spir": 1434,
      "things": 1435,
      "art": 1436,
      "advent": 1437,
      "black": 1438,
      "minute": 1439,
      "terri": 1440,
      "used": 1441,
      "written": 1442,
      "remake": 1443,
      "Christ": 1444,
      "killing": 1445,
      "thinking": 1446,
      "inside": 1447,
      "inspir": 1448,
      "sounds": 1449,
      "performances": 1450,
      "tele": 1451,
      "train": 1452,
      "involve": 1453,
      "Streisand": 1454,
      "called": 1455,
      "##tractive": 1456,
      "apparent": 1457,
      "buy": 1458,
      "miss": 1459,
      "zombies": 1460,
      "clear": 1461,
      "elements": 1462,
      "obviously": 1463,
      "Only": 1464,
      "fantasy": 1465,
      "keep": 1466,
      "redeem": 1467,
      "talent": 1468,
      "absolute": 1469,
      "Arcat": 1470,
      "Every": 1471,
      "basically": 1472,
      "emb": 1473,
      "jokes": 1474,
      "wonder": 1475,
      "convincing": 1476,
      "expecting": 1477,
      "failed": 1478,
      "Israeli": 1479,
      "200": 1480,
      "Madame": 1481,
      "guns": 1482,
      "ridicul": 1483,
      "##ollow": 1484,
      "##ronic": 1485,
      "totally": 1486,
      "several": 1487,
      "sequel": 1488,
      "happened": 1489,
      "somewhat": 1490,
      "entertain": 1491,
      "##fortunately": 1492,
      "idiot": 1493,
      "improv": 1494,
      "cinematograp": 1495,
      "Gabriel": 1496,
      "Harrison": 1497,
      "Tremors": 1498,
      "Wilson": 1499,
      "certain": 1500,
      "couple": 1501,
      "especially": 1502,
      "half": 1503,
      "large": 1504,
      "money": 1505,
      "quality": 1506,
      "inspired": 1507,
      "Arcati": 1508,
      "ridiculous": 1509,
      "Am": 1510,
      "After": 1511,
      "Bond": 1512,
      "Cl": 1513,
      "Can": 1514,
      "Dis": 1515,
      "Dead": 1516,
      "For": 1517,
      "Gl": 1518,
      "Good": 1519,
      "Girl": 1520,
      "Her": 1521,
      "Ham": 1522,
      "Hood": 1523,
      "Hob": 1524,
      "Just": 1525,
      "Job": 1526,
      "Jord": 1527,
      "Kay": 1528,
      "Lad": 1529,
      "Lans": 1530,
      "My": 1531,
      "Mit": 1532,
      "May": 1533,
      "Much": 1534,
      "Mary": 1535,
      "New": 1536,
      "Ol": 1537,
      "OK": 1538,
      "Osc": 1539,
      "Ph": 1540,
      "Sh": 1541,
      "Sp": 1542,
      "Some": 1543,
      "Sure": 1544,
      "South": 1545,
      "Un": 1546,
      "WH": 1547,
      "Watch": 1548,
      "Yes": 1549,
      "air": 1550,
      "ben": 1551,
      "boy": 1552,
      "body": 1553,
      "catch": 1554,
      "col": 1555,
      "crit": 1556,
      "creat": 1557,
      "care": 1558,
      "case": 1559,
      "dou": 1560,
      "day": 1561,
      "dri": 1562,
      "dull": 1563,
      "fi": 1564,
      "fem": 1565,
      "fine": 1566,
      "fans": 1567,
      "fif": 1568,
      "final": 1569,
      "free": 1570,
      "follow": 1571,
      "gh": 1572,
      "gag": 1573,
      "ho": 1574,
      "ham": 1575,
      "house": 1576,
      "luck": 1577,
      "later": 1578,
      "mar": 1579,
      "mag": 1580,
      "mod": 1581,
      "mention": 1582,
      "name": 1583,
      "named": 1584,
      "op": 1585,
      "pa": 1586,
      "pat": 1587,
      "pow": 1588,
      "pay": 1589,
      "pure": 1590,
      "pict": 1591,
      "pleas": 1592,
      "person": 1593,
      "ru": 1594,
      "rest": 1595,
      "rush": 1596,
      "sw": 1597,
      "sing": 1598,
      "sad": 1599,
      "sus": 1600,
      "sick": 1601,
      "sour": 1602,
      "sign": 1603,
      "tem": 1604,
      "ut": 1605,
      "vers": 1606,
      "war": 1607,
      "wit": 1608,
      "wood": 1609,
      "yes": 1610,
      "##oad": 1611,
      "##ring": 1612,
      "##ris": 1613,
      "##redi": 1614,
      "##kw": 1615,
      "##ee": 1616,
      "##eed": 1617,
      "##sy": 1618,
      "##son": 1619,
      "##aff": 1620,
      "##ied": 1621,
      "##igh": 1622,
      "##ibly": 1623,
      "##tic": 1624,
      "##na": 1625,
      "##nect": 1626,
      "##yn": 1627,
      "##ype": 1628,
      "##ler": 1629,
      "##lins": 1630,
      "##ges": 1631,
      "##gal": 1632,
      "##gel": 1633,
      "##gob": 1634,
      "##cum": 1635,
      "##cceed": 1636,
      "##hh": 1637,
      "##hind": 1638,
      "##IN": 1639,
      "##IT": 1640,
      "##EA": 1641,
      "##press": 1642,
      "##den": 1643,
      "##bl": 1644,
      "##bre": 1645,
      "##but": 1646,
      "##bur": 1647,
      "##band": 1648,
      "##belie": 1649,
      "##mm": 1650,
      "##min": 1651,
      "##mal": 1652,
      "##more": 1653,
      "##mond": 1654,
      "##ND": 1655,
      "##OO": 1656,
      "##OR": 1657,
      "third": 1658,
      "theater": 1659,
      "##eren": 1660,
      "##eral": 1661,
      "##erness": 1662,
      "##erves": 1663,
      "##orry": 1664,
      "##ese": 1665,
      "##esent": 1666,
      "##ator": 1667,
      "##atic": 1668,
      "##aters": 1669,
      "##ingly": 1670,
      "told": 1671,
      "together": 1672,
      "##als": 1673,
      "##ali": 1674,
      "##ald": 1675,
      "##arn": 1676,
      "##arb": 1677,
      "##arz": 1678,
      "##aring": 1679,
      "##arth": 1680,
      "##itz": 1681,
      "##ital": 1682,
      "##ition": 1683,
      "##rey": 1684,
      "inte": 1685,
      "brings": 1686,
      "##omp": 1687,
      "##ili": 1688,
      "##iler": 1689,
      "##illy": 1690,
      "##lease": 1691,
      "begg": 1692,
      "behind": 1693,
      "##ster": 1694,
      "##stit": 1695,
      "##adway": 1696,
      "##hem": 1697,
      "##hetic": 1698,
      "once": 1699,
      "ret": 1700,
      "rep": 1701,
      "repl": 1702,
      "##enty": 1703,
      "##ently": 1704,
      "##ayne": 1705,
      "##llig": 1706,
      "##llace": 1707,
      "stra": 1708,
      "stuck": 1709,
      "anim": 1710,
      "##ceiv": 1711,
      "live": 1712,
      "##right": 1713,
      "young": 1714,
      "sci": 1715,
      "score": 1716,
      "##imes": 1717,
      "sho": 1718,
      "sham": 1719,
      "actress": 1720,
      "hero": 1721,
      "##terly": 1722,
      "##ula": 1723,
      "##ained": 1724,
      "##urp": 1725,
      "##urd": 1726,
      "##ures": 1727,
      "##unning": 1728,
      "##unts": 1729,
      "docum": 1730,
      "attractive": 1731,
      "child": 1732,
      "constant": 1733,
      "connect": 1734,
      "dead": 1735,
      "dept": 1736,
      "dealing": 1737,
      "ord": 1738,
      "##akening": 1739,
      "##ptic": 1740,
      "someone": 1741,
      "ext": 1742,
      "expl": 1743,
      "##ague": 1744,
      "##istic": 1745,
      "mean": 1746,
      "succeed": 1747,
      "weap": 1748,
      "##aste": 1749,
      "##astic": 1750,
      "enc": 1751,
      "pop": 1752,
      "##ppy": 1753,
      "uni": 1754,
      "anymore": 1755,
      "##allow": 1756,
      "trick": 1757,
      "shown": 1758,
      "leave": 1759,
      "##teen": 1760,
      "fluff": 1761,
      "throw": 1762,
      "fair": 1763,
      "fault": 1764,
      "known": 1765,
      "knowing": 1766,
      "perhaps": 1767,
      "ago": 1768,
      "directed": 1769,
      "What": 1770,
      "feat": 1771,
      "become": 1772,
      "awkw": 1773,
      "overall": 1774,
      "president": 1775,
      "##arry": 1776,
      "offer": 1777,
      "##ogical": 1778,
      "works": 1779,
      "adapt": 1780,
      "blood": 1781,
      "##ives": 1782,
      "Ash": 1783,
      "mostly": 1784,
      "clos": 1785,
      "parts": 1786,
      "write": 1787,
      "##pens": 1788,
      "##pense": 1789,
      "scream": 1790,
      "however": 1791,
      "against": 1792,
      "Angel": 1793,
      "among": 1794,
      "ground": 1795,
      "group": 1796,
      "soundtra": 1797,
      "screenplay": 1798,
      "apart": 1799,
      "produced": 1800,
      "desp": 1801,
      "deserves": 1802,
      "teen": 1803,
      "##pects": 1804,
      "199": 1805,
      "197": 1806,
      "general": 1807,
      "Rex": 1808,
      "Sollace": 1809,
      "See": 1810,
      "Segal": 1811,
      "appreci": 1812,
      "boring": 1813,
      "titles": 1814,
      "taken": 1815,
      "takes": 1816,
      "taking": 1817,
      "##ocal": 1818,
      "##aches": 1819,
      "strong": 1820,
      "contin": 1821,
      "content": 1822,
      "points": 1823,
      "Although": 1824,
      "clearly": 1825,
      "indeed": 1826,
      "turn": 1827,
      "##ublic": 1828,
      "words": 1829,
      "enjoyable": 1830,
      "cred": 1831,
      "dram": 1832,
      "fantastic": 1833,
      "illogical": 1834,
      "motion": 1835,
      "redu": 1836,
      "tells": 1837,
      "##ension": 1838,
      "incredi": 1839,
      "worthless": 1840,
      "defend": 1841,
      "possess": 1842,
      "guys": 1843,
      "Awakening": 1844,
      "LV2": 1845,
      "LV1": 1846,
      "craz": 1847,
      "campy": 1848,
      "hours": 1849,
      "medium": 1850,
      "rented": 1851,
      "##lusion": 1852,
      "##ground": 1853,
      "deathly": 1854,
      "situation": 1855,
      "situations": 1856,
      "visuals": 1857,
      "entirely": 1858,
      "Broadway": 1859,
      "Paul": 1860,
      "captiv": 1861,
      "eye": 1862,
      "eventually": 1863,
      "hopeless": 1864,
      "milit": 1865,
      "prior": 1866,
      "sleep": 1867,
      "wilderness": 1868,
      "##ienced": 1869,
      "##chell": 1870,
      "##vira": 1871,
      "standards": 1872,
      "managed": 1873,
      "seriously": 1874,
      "checkpoint": 1875,
      "survival": 1876,
      "community": 1877,
      "honestly": 1878,
      "Elvira": 1879,
      "Perhaps": 1880,
      "across": 1881,
      "bigger": 1882,
      "finish": 1883,
      "help": 1884,
      "normal": 1885,
      "novel": 1886,
      "phot": 1887,
      "potential": 1888,
      "small": 1889,
      "since": 1890,
      "simply": 1891,
      "touches": 1892,
      "value": 1893,
      "##initely": 1894,
      "formula": 1895,
      "lighting": 1896,
      "conclusion": 1897,
      "executed": 1898,
      "previously": 1899,
      "spirit": 1900,
      "adventure": 1901,
      "terrific": 1902,
      "redeeming": 1903,
      "absolutely": 1904,
      "Everything": 1905,
      "entertainment": 1906,
      "cinematography": 1907,
      "certainly": 1908,
      "largely": 1909,
      "Disney": 1910,
      "Hammond": 1911,
      "Hobgob": 1912,
      "Jordan": 1913,
      "Kaye": 1914,
      "Ladd": 1915,
      "Lansbur": 1916,
      "Mitchell": 1917,
      "Maybe": 1918,
      "Olsen": 1919,
      "female": 1920,
      "fifteen": 1921,
      "ghost": 1922,
      "pathetic": 1923,
      "picture": 1924,
      "utterly": 1925,
      "version": 1926,
      "wooden": 1927,
      "##ING": 1928,
      "intellig": 1929,
      "##ceived": 1930,
      "document": 1931,
      "constantly": 1932,
      "depth": 1933,
      "awkward": 1934,
      "adaptation": 1935,
      "Angela": 1936,
      "soundtrack": 1937,
      "incredibly": 1938,
      "Hobgoblins": 1939,
      "Lansbury": 1940,
      "intelligent": 1941,
      "12": 1942,
      "3D": 1943,
      "4th": 1944,
      "91": 1945,
      "Av": 1946,
      "Act": 1947,
      "Ara": 1948,
      "App": 1949,
      "Amer": 1950,
      "AND": 1951,
      "BA": 1952,
      "Big": 1953,
      "Bub": 1954,
      "Bush": 1955,
      "Bald": 1956,
      "Barb": 1957,
      "Car": 1958,
      "Cum": 1959,
      "Cry": 1960,
      "Coun": 1961,
      "Do": 1962,
      "Dam": 1963,
      "Def": 1964,
      "Demand": 1965,
      "Ed": 1966,
      "Earth": 1967,
      "Fu": 1968,
      "Fat": 1969,
      "Fil": 1970,
      "Fir": 1971,
      "Fro": 1972,
      "Fight": 1973,
      "Gad": 1974,
      "Gay": 1975,
      "Gol": 1976,
      "Gary": 1977,
      "Gali": 1978,
      "Grey": 1979,
      "Hen": 1980,
      "Hor": 1981,
      "Hill": 1982,
      "Hard": 1983,
      "IF": 1984,
      "Je": 1985,
      "Jon": 1986,
      "Jul": 1987,
      "Jack": 1988,
      "Jared": 1989,
      "James": 1990,
      "Ke": 1991,
      "Kate": 1992,
      "Kung": 1993,
      "Mat": 1994,
      "Med": 1995,
      "Mar": 1996,
      "Mend": 1997,
      "Mich": 1998,
      "Mex": 1999,
      "Mplay": 2000,
      "No": 2001,
      "NE": 2002,
      "Nor": 2003,
      "Nat": 2004,
      "Never": 2005,
      "Nea": 2006,
      "Naz": 2007,
      "Ow": 2008,
      "Oh": 2009,
      "Outer": 2010,
      "Py": 2011,
      "Pl": 2012,
      "Pat": 2013,
      "Pony": 2014,
      "Payne": 2015,
      "Qu": 2016,
      "RA": 2017,
      "Rob": 2018,
      "Rush": 2019,
      "ST": 2020,
      "Send": 2021,
      "Simp": 2022,
      "Scott": 2023,
      "TH": 2024,
      "Tot": 2025,
      "Too": 2026,
      "Tony": 2027,
      "Val": 2028,
      "Very": 2029,
      "Vamp": 2030,
      "Wow": 2031,
      "Wall": 2032,
      "Warr": 2033,
      "Wild": 2034,
      "Zell": 2035,
      "Zhan": 2036,
      "aut": 2037,
      "aver": 2038,
      "able": 2039,
      "aunts": 2040,
      "bal": 2041,
      "bir": 2042,
      "bim": 2043,
      "bus": 2044,
      "breat": 2045,
      "car": 2046,
      "cas": 2047,
      "cov": 2048,
      "cri": 2049,
      "cau": 2050,
      "cost": 2051,
      "cart": 2052,
      "cap": 2053,
      "cond": 2054,
      "cry": 2055,
      "corn": 2056,
      "cross": 2057,
      "carry": 2058,
      "dam": 2059,
      "dim": 2060,
      "del": 2061,
      "dry": 2062,
      "dress": 2063,
      "during": 2064,
      "demand": 2065,
      "er": 2066,
      "et": 2067,
      "eas": 2068,
      "ess": 2069,
      "equ": 2070,
      "each": 2071,
      "evo": 2072,
      "early": 2073,
      "easy": 2074,
      "fit": 2075,
      "fro": 2076,
      "fest": 2077,
      "fur": 2078,
      "fast": 2079,
      "fight": 2080,
      "four": 2081,
      "father": 2082,
      "fire": 2083,
      "foc": 2084,
      "gi": 2085,
      "gan": 2086,
      "gra": 2087,
      "game": 2088,
      "gays": 2089,
      "gyp": 2090,
      "gives": 2091,
      "hid": 2092,
      "home": 2093,
      "hus": 2094,
      "hol": 2095,
      "hate": 2096,
      "hold": 2097,
      "high": 2098,
      "ir": 2099,
      "ig": 2100,
      "jud": 2101,
      "job": 2102,
      "junk": 2103,
      "lame": 2104,
      "labor": 2105,
      "ma": 2106,
      "med": 2107,
      "mas": 2108,
      "met": 2109,
      "mum": 2110,
      "moun": 2111,
      "melt": 2112,
      "nu": 2113,
      "none": 2114,
      "nude": 2115,
      "ok": 2116,
      "opp": 2117,
      "oath": 2118,
      "pu": 2119,
      "pra": 2120,
      "pers": 2121,
      "past": 2122,
      "pace": 2123,
      "park": 2124,
      "parent": 2125,
      "psy": 2126,
      "purp": 2127,
      "public": 2128,
      "ran": 2129,
      "rout": 2130,
      "si": 2131,
      "sn": 2132,
      "sal": 2133,
      "sent": 2134,
      "song": 2135,
      "squ": 2136,
      "sends": 2137,
      "size": 2138,
      "sorry": 2139,
      "silly": 2140,
      "ten": 2141,
      "tor": 2142,
      "tar": 2143,
      "tough": 2144,
      "trap": 2145,
      "torn": 2146,
      "type": 2147,
      "taste": 2148,
      "ul": 2149,
      "vi": 2150,
      "vir": 2151,
      "via": 2152,
      "voice": 2153,
      "wa": 2154,
      "win": 2155,
      "whe": 2156,
      "went": 2157,
      "walk": 2158,
      "weren": 2159,
      "##oor": 2160,
      "##off": 2161,
      "##oony": 2162,
      "##ru": 2163,
      "##ral": 2164,
      "##row": 2165,
      "##rest": 2166,
      "##eg": 2167,
      "##eor": 2168,
      "##ear": 2169,
      "##ely": 2170,
      "##evelop": 2171,
      "##sn": 2172,
      "##sing": 2173,
      "##sical": 2174,
      "##side": 2175,
      "##uh": 2176,
      "##use": 2177,
      "##uine": 2178,
      "##uper": 2179,
      "##uert": 2180,
      "##ael": 2181,
      "##aus": 2182,
      "##aced": 2183,
      "##aves": 2184,
      "##aces": 2185,
      "##ially": 2186,
      "##iver": 2187,
      "##ians": 2188,
      "##iod": 2189,
      "##win": 2190,
      "##to": 2191,
      "##ti": 2192,
      "##try": 2193,
      "##taking": 2194,
      "##nor": 2195,
      "##nie": 2196,
      "##noy": 2197,
      "##noc": 2198,
      "##yptic": 2199,
      "##lf": 2200,
      "##lud": 2201,
      "##lish": 2202,
      "##lict": 2203,
      "##gar": 2204,
      "##gers": 2205,
      "##gard": 2206,
      "##grap": 2207,
      "##gments": 2208,
      "##gress": 2209,
      "##cent": 2210,
      "##cess": 2211,
      "##cies": 2212,
      "##cast": 2213,
      "##cious": 2214,
      "##htaking": 2215,
      "##IS": 2216,
      "##ES": 2217,
      "##vis": 2218,
      "##vil": 2219,
      "##vol": 2220,
      "##ph": 2221,
      "##phere": 2222,
      "##ding": 2223,
      "##drop": 2224,
      "##develop": 2225,
      "##bor": 2226,
      "##bing": 2227,
      "##fits": 2228,
      "##ms": 2229,
      "##mp": 2230,
      "##mas": 2231,
      "##mos": 2232,
      "##mings": 2233,
      "##ée": 2234,
      "##éd": 2235,
      "##0s": 2236,
      "##02": 2237,
      "##ze": 2238,
      "##zog": 2239,
      "##OU": 2240,
      "##VER": 2241,
      "##LL": 2242,
      "##30s": 2243,
      "##jor": 2244,
      "##que": 2245,
      "##Que": 2246,
      "##ern": 2247,
      "##erally": 2248,
      "##ermin": 2249,
      "##iny": 2250,
      "##iness": 2251,
      "##ination": 2252,
      "##inated": 2253,
      "##inary": 2254,
      "##invol": 2255,
      "##ork": 2256,
      "##orig": 2257,
      "##escott": 2258,
      "##ates": 2259,
      "##atty": 2260,
      "##ature": 2261,
      "##athy": 2262,
      "##nded": 2263,
      "##inger": 2264,
      "##oura": 2265,
      "##ont": 2266,
      "##onment": 2267,
      "##ising": 2268,
      "tool": 2269,
      "town": 2270,
      "toler": 2271,
      "##alm": 2272,
      "##ara": 2273,
      "##ares": 2274,
      "##aries": 2275,
      "##arks": 2276,
      "##arison": 2277,
      "##ario": 2278,
      "##lying": 2279,
      "##iting": 2280,
      "##itous": 2281,
      "##ano": 2282,
      "##ange": 2283,
      "##asm": 2284,
      "##asion": 2285,
      "ine": 2286,
      "inf": 2287,
      "inex": 2288,
      "innoc": 2289,
      "bring": 2290,
      "brie": 2291,
      "brain": 2292,
      "##ilt": 2293,
      "##ctly": 2294,
      "##ote": 2295,
      "##icating": 2296,
      "##icult": 2297,
      "##ield": 2298,
      "##ley": 2299,
      "##lection": 2300,
      "##oves": 2301,
      "bear": 2302,
      "begin": 2303,
      "##stance": 2304,
      "##ades": 2305,
      "##adian": 2306,
      "moving": 2307,
      "repe": 2308,
      "releas": 2309,
      "release": 2310,
      "reaches": 2311,
      "##entin": 2312,
      "##entist": 2313,
      "##entine": 2314,
      "stre": 2315,
      "stay": 2316,
      "store": 2317,
      "stud": 2318,
      "stars": 2319,
      "stock": 2320,
      "stuff": 2321,
      "forest": 2322,
      "forget": 2323,
      "former": 2324,
      "asked": 2325,
      "aspects": 2326,
      "##ched": 2327,
      "within": 2328,
      "annoy": 2329,
      "##ider": 2330,
      "##iding": 2331,
      "##lden": 2332,
      "sees": 2333,
      "self": 2334,
      "##cean": 2335,
      "##hero": 2336,
      "##herfor": 2337,
      "fill": 2338,
      "##ires": 2339,
      "##ired": 2340,
      "lives": 2341,
      "likes": 2342,
      "liked": 2343,
      "science": 2344,
      "schem": 2345,
      "scares": 2346,
      "hack": 2347,
      "notch": 2348,
      "##imal": 2349,
      "##immer": 2350,
      "shut": 2351,
      "shame": 2352,
      "share": 2353,
      "shallow": 2354,
      "##raw": 2355,
      "##cks": 2356,
      "herself": 2357,
      "##tering": 2358,
      "##ular": 2359,
      "##uster": 2360,
      "##ems": 2361,
      "##ement": 2362,
      "##empt": 2363,
      "##rodu": 2364,
      "##roach": 2365,
      "##eston": 2366,
      "##estig": 2367,
      "##ains": 2368,
      "##urs": 2369,
      "##urn": 2370,
      "##ural": 2371,
      "##urman": 2372,
      "##urring": 2373,
      "##unter": 2374,
      "likely": 2375,
      "comedic": 2376,
      "##ought": 2377,
      "doll": 2378,
      "sold": 2379,
      "atmos": 2380,
      "place": 2381,
      "plague": 2382,
      "champ": 2383,
      "chronic": 2384,
      "hear": 2385,
      "heard": 2386,
      "##peau": 2387,
      "##illi": 2388,
      "conceived": 2389,
      "debut": 2390,
      "##outing": 2391,
      "##usi": 2392,
      "These": 2393,
      "Thurman": 2394,
      "cant": 2395,
      "allowed": 2396,
      "dig": 2397,
      "exc": 2398,
      "exist": 2399,
      "exact": 2400,
      "examp": 2401,
      "express": 2402,
      "##ists": 2403,
      "meant": 2404,
      "sum": 2405,
      "succ": 2406,
      "weird": 2407,
      "above": 2408,
      "justice": 2409,
      "enth": 2410,
      "envir": 2411,
      "frame": 2412,
      "front": 2413,
      "getting": 2414,
      "unint": 2415,
      "unfortunately": 2416,
      "unbelie": 2417,
      "uninvol": 2418,
      "unorig": 2419,
      "scenery": 2420,
      "scenario": 2421,
      "##icken": 2422,
      "##icking": 2423,
      "outfits": 2424,
      "prop": 2425,
      "progr": 2426,
      "whose": 2427,
      "##acks": 2428,
      "##artial": 2429,
      "seeing": 2430,
      "necess": 2431,
      "##oph": 2432,
      "##fulness": 2433,
      "##igious": 2434,
      "##igned": 2435,
      "golden": 2436,
      "trite": 2437,
      "true": 2438,
      "showc": 2439,
      "showing": 2440,
      "##ended": 2441,
      "##ichéd": 2442,
      "flu": 2443,
      "flat": 2444,
      "flick": 2445,
      "makeup": 2446,
      "introdu": 2447,
      "period": 2448,
      "##apers": 2449,
      "aggress": 2450,
      "direction": 2451,
      "Who": 2452,
      "feast": 2453,
      "compare": 2454,
      "computer": 2455,
      "comparison": 2456,
      "looking": 2457,
      "prom": 2458,
      "present": 2459,
      "spent": 2460,
      "spaces": 2461,
      "##arrass": 2462,
      "save": 2463,
      "saved": 2464,
      "##plot": 2465,
      "##plays": 2466,
      "##inkin": 2467,
      "##orts": 2468,
      "working": 2469,
      "worked": 2470,
      "##ode": 2471,
      "##ints": 2472,
      "##ished": 2473,
      "arrest": 2474,
      "adult": 2475,
      "blame": 2476,
      "blank": 2477,
      "minor": 2478,
      "minimal": 2479,
      "##perienced": 2480,
      "##perature": 2481,
      "##selves": 2482,
      "twins": 2483,
      "twenty": 2484,
      "background": 2485,
      "backdrop": 2486,
      "clichéd": 2487,
      "humans": 2488,
      "impl": 2489,
      "partner": 2490,
      "serves": 2491,
      "terror": 2492,
      "using": 2493,
      "writing": 2494,
      "##ific": 2495,
      "##ified": 2496,
      "##lessly": 2497,
      "invite": 2498,
      "Chan": 2499,
      "kills": 2500,
      "room": 2501,
      "speak": 2502,
      "species": 2503,
      "##tings": 2504,
      "underdevelop": 2505,
      "ending": 2506,
      "insult": 2507,
      "Annie": 2508,
      "amaz": 2509,
      "grow": 2510,
      "sitting": 2511,
      "##epers": 2512,
      "##weger": 2513,
      "reality": 2514,
      "realize": 2515,
      "believes": 2516,
      "apocal": 2517,
      "chees": 2518,
      "cheap": 2519,
      "himself": 2520,
      "played": 2521,
      "loved": 2522,
      "lovers": 2523,
      "quick": 2524,
      "text": 2525,
      "trag": 2526,
      "track": 2527,
      "trailer": 2528,
      "wants": 2529,
      "wanted": 2530,
      "##ybody": 2531,
      "##hysical": 2532,
      "shoulder": 2533,
      "involving": 2534,
      "194": 2535,
      "1930s": 2536,
      "Starz": 2537,
      "calls": 2538,
      "genre": 2539,
      "genital": 2540,
      "genuine": 2541,
      "opened": 2542,
      "everything": 2543,
      "approach": 2544,
      "build": 2545,
      "sometimes": 2546,
      "viewer": 2547,
      "viewing": 2548,
      "viewed": 2549,
      "viewers": 2550,
      "struct": 2551,
      "strugg": 2552,
      "decent": 2553,
      "substit": 2554,
      "subplot": 2555,
      "glimmer": 2556,
      "mistakes": 2557,
      "turning": 2558,
      "turned": 2559,
      "##ocked": 2560,
      "##azy": 2561,
      "##ording": 2562,
      "##ottom": 2563,
      "revival": 2564,
      "##entional": 2565,
      "starts": 2566,
      "difficult": 2567,
      "books": 2568,
      "court": 2569,
      "drunk": 2570,
      "friend": 2571,
      "hardly": 2572,
      "key": 2573,
      "lesson": 2574,
      "passion": 2575,
      "talks": 2576,
      "tries": 2577,
      "includ": 2578,
      "religious": 2579,
      "recomm": 2580,
      "recently": 2581,
      "common": 2582,
      "absurd": 2583,
      "possible": 2584,
      "possibly": 2585,
      "efforts": 2586,
      "added": 2587,
      "classics": 2588,
      "appear": 2589,
      "appears": 2590,
      "appealing": 2591,
      "Palestinians": 2592,
      "Awful": 2593,
      "Golden": 2594,
      "Goldie": 2595,
      "NOIS": 2596,
      "President": 2597,
      "Prescott": 2598,
      "joke": 2599,
      "media": 2600,
      "wondering": 2601,
      "##remely": 2602,
      "##ready": 2603,
      "assass": 2604,
      "assured": 2605,
      "consider": 2606,
      "convinced": 2607,
      "perfectly": 2608,
      "reviews": 2609,
      "dialogue": 2610,
      "supposedly": 2611,
      "Israelis": 2612,
      "Beatty": 2613,
      "Brosn": 2614,
      "Jews": 2615,
      "Nothing": 2616,
      "bitty": 2617,
      "bothered": 2618,
      "events": 2619,
      "occasion": 2620,
      "occurring": 2621,
      "swear": 2622,
      "wrong": 2623,
      "wrote": 2624,
      "wilds": 2625,
      "##alker": 2626,
      "strictly": 2627,
      "commentator": 2628,
      "attention": 2629,
      "confus": 2630,
      "conflict": 2631,
      "develops": 2632,
      "development": 2633,
      "expert": 2634,
      "experience": 2635,
      "transf": 2636,
      "transform": 2637,
      "Anyone": 2638,
      "survive": 2639,
      "Brad": 2640,
      "Getting": 2641,
      "Hawn": 2642,
      "McQue": 2643,
      "Ruth": 2644,
      "Rutherfor": 2645,
      "Steven": 2646,
      "created": 2647,
      "cutting": 2648,
      "dump": 2649,
      "dumb": 2650,
      "edit": 2651,
      "famili": 2652,
      "homage": 2653,
      "latest": 2654,
      "market": 2655,
      "parody": 2656,
      "pulled": 2657,
      "skill": 2658,
      "##board": 2659,
      "starring": 2660,
      "starred": 2661,
      "seconds": 2662,
      "filmmaker": 2663,
      "filmmakers": 2664,
      "superhero": 2665,
      "week": 2666,
      "weeks": 2667,
      "political": 2668,
      "flaws": 2669,
      "telegrap": 2670,
      "televis": 2671,
      "involvement": 2672,
      "apparently": 2673,
      "buying": 2674,
      "talented": 2675,
      "embarrass": 2676,
      "sequels": 2677,
      "idiotically": 2678,
      "improvement": 2679,
      "Amy": 2680,
      "Glenn": 2681,
      "Herzog": 2682,
      "Oscar": 2683,
      "Space": 2684,
      "Unfortunately": 2685,
      "WHIT": 2686,
      "bench": 2687,
      "collection": 2688,
      "critics": 2689,
      "double": 2690,
      "driving": 2691,
      "fiction": 2692,
      "hope": 2693,
      "magical": 2694,
      "opin": 2695,
      "paid": 2696,
      "powers": 2697,
      "purely": 2698,
      "pleasure": 2699,
      "rule": 2700,
      "rushed": 2701,
      "sadly": 2702,
      "suspense": 2703,
      "source": 2704,
      "signific": 2705,
      "temperature": 2706,
      "##breaking": 2707,
      "##ORT": 2708,
      "beggar": 2709,
      "return": 2710,
      "replic": 2711,
      "stranded": 2712,
      "animated": 2713,
      "scientist": 2714,
      "shameless": 2715,
      "##unningly": 2716,
      "connection": 2717,
      "ordinary": 2718,
      "extremely": 2719,
      "succeeds": 2720,
      "weapon": 2721,
      "encoura": 2722,
      "popul": 2723,
      "unique": 2724,
      "Ashley": 2725,
      "closets": 2726,
      "groundbreaking": 2727,
      "apartment": 2728,
      "despite": 2729,
      "teenage": 2730,
      "1972": 2731,
      "continue": 2732,
      "credit": 2733,
      "dramatic": 2734,
      "reduced": 2735,
      "possesses": 2736,
      "crazy": 2737,
      "Paulsen": 2738,
      "military": 2739,
      "sleepw": 2740,
      "photograp": 2741,
      "documentaries": 2742,
      "911": 2743,
      "Arahan": 2744,
      "American": 2745,
      "Baldwin": 2746,
      "Barbra": 2747,
      "Cummings": 2748,
      "First": 2749,
      "Gadget": 2750,
      "Golan": 2751,
      "Galipeau": 2752,
      "Jackie": 2753,
      "Medem": 2754,
      "Margar": 2755,
      "Mendel": 2756,
      "Michael": 2757,
      "Mplayer": 2758,
      "NEVER": 2759,
      "Nazi": 2760,
      "Owl": 2761,
      "Pyun": 2762,
      "Patinkin": 2763,
      "Robert": 2764,
      "Rushton": 2765,
      "Sender": 2766,
      "Valentine": 2767,
      "Warren": 2768,
      "Zellweger": 2769,
      "Zhang": 2770,
      "average": 2771,
      "birth": 2772,
      "bimbo": 2773,
      "breathtaking": 2774,
      "cases": 2775,
      "caught": 2776,
      "costs": 2777,
      "dimension": 2778,
      "deliver": 2779,
      "etc": 2780,
      "easily": 2781,
      "evoke": 2782,
      "further": 2783,
      "focus": 2784,
      "gang": 2785,
      "grace": 2786,
      "husband": 2787,
      "holes": 2788,
      "ignor": 2789,
      "major": 2790,
      "mountain": 2791,
      "okay": 2792,
      "ranks": 2793,
      "routine": 2794,
      "sentence": 2795,
      "songs": 2796,
      "torment": 2797,
      "target": 2798,
      "viol": 2799,
      "virus": 2800,
      "whether": 2801,
      "tools": 2802,
      "tolerate": 2803,
      "inexperienced": 2804,
      "innocent": 2805,
      "brief": 2806,
      "beginning": 2807,
      "atmosphere": 2808,
      "chronicle": 2809,
      "exactly": 2810,
      "example": 2811,
      "success": 2812,
      "enthusi": 2813,
      "environment": 2814,
      "unintentional": 2815,
      "unbeliev": 2816,
      "uninvolving": 2817,
      "unoriginal": 2818,
      "program": 2819,
      "introduction": 2820,
      "spaceship": 2821,
      "underdeveloped": 2822,
      "apocalyptic": 2823,
      "genitalia": 2824,
      "struggles": 2825,
      "substitute": 2826,
      "NOISE": 2827,
      "Brosnan": 2828,
      "McQueen": 2829,
      "Rutherford": 2830,
      "familiar": 2831,
      "telegraph": 2832,
      "television": 2833,
      "WHITE": 2834,
      "Margaret": 2835,
      "15": 2836,
      "13": 2837,
      "16": 2838,
      "18": 2839,
      "1st": 2840,
      "2D": 2841,
      "27": 2842,
      "40": 2843,
      "47": 2844,
      "5th": 2845,
      "8F": 2846,
      "902": 2847,
      "Ay": 2848,
      "Ag": 2849,
      "AK": 2850,
      "Ab": 2851,
      "Are": 2852,
      "Aust": 2853,
      "Age": 2854,
      "Amen": 2855,
      "Aband": 2856,
      "BT": 2857,
      "Bat": 2858,
      "Bon": 2859,
      "Bent": 2860,
      "Bet": 2861,
      "Bur": 2862,
      "Back": 2863,
      "Bever": 2864,
      "Bea": 2865,
      "Belie": 2866,
      "Bottom": 2867,
      "CI": 2868,
      "Con": 2869,
      "Cre": 2870,
      "Com": 2871,
      "Che": 2872,
      "Cast": 2873,
      "Cond": 2874,
      "Cause": 2875,
      "Corn": 2876,
      "Cyborg": 2877,
      "Cox": 2878,
      "Cali": 2879,
      "Comp": 2880,
      "Dr": 2881,
      "De": 2882,
      "Di": 2883,
      "DO": 2884,
      "Des": 2885,
      "Dou": 2886,
      "Dan": 2887,
      "Dir": 2888,
      "Dem": 2889,
      "Dies": 2890,
      "Dag": 2891,
      "Dark": 2892,
      "During": 2893,
      "Eu": 2894,
      "Ey": 2895,
      "Ex": 2896,
      "Ep": 2897,
      "Eb": 2898,
      "EV": 2899,
      "Eat": 2900,
      "Ele": 2901,
      "Even": 2902,
      "Ecc": 2903,
      "Either": 2904,
      "Eng": 2905,
      "Elect": 2906,
      "Evil": 2907,
      "Emp": 2908,
      "Fr": 2909,
      "Fe": 2910,
      "FX": 2911,
      "Fre": 2912,
      "Fri": 2913,
      "Four": 2914,
      "Fox": 2915,
      "Fitz": 2916,
      "Flying": 2917,
      "FORT": 2918,
      "Go": 2919,
      "Gr": 2920,
      "Gi": 2921,
      "Gen": 2922,
      "Gar": 2923,
      "Gore": 2924,
      "Give": 2925,
      "Great": 2926,
      "Gert": 2927,
      "Geor": 2928,
      "HK": 2929,
      "HE": 2930,
      "HA": 2931,
      "Hat": 2932,
      "His": 2933,
      "Har": 2934,
      "Hil": 2935,
      "Hust": 2936,
      "Hell": 2937,
      "Holl": 2938,
      "House": 2939,
      "HER": 2940,
      "HEA": 2941,
      "HOR": 2942,
      "Heston": 2943,
      "Hunter": 2944,
      "Ir": 2945,
      "IS": 2946,
      "Iv": 2947,
      "IT": 2948,
      "Ja": 2949,
      "Ji": 2950,
      "Jen": 2951,
      "Jan": 2952,
      "Jov": 2953,
      "Jim": 2954,
      "Jun": 2955,
      "Jenn": 2956,
      "Jayne": 2957,
      "KI": 2958,
      "King": 2959,
      "Kar": 2960,
      "Kade": 2961,
      "Kather": 2962,
      "Krist": 2963,
      "Kenn": 2964,
      "Kris": 2965,
      "Kathy": 2966,
      "Li": 2967,
      "LS": 2968,
      "Lar": 2969,
      "Lul": 2970,
      "Land": 2971,
      "Line": 2972,
      "Long": 2973,
      "Lond": 2974,
      "Los": 2975,
      "Lance": 2976,
      "Lif": 2977,
      "Luck": 2978,
      "Laugh": 2979,
      "Like": 2980,
      "LES": 2981,
      "Mr": 2982,
      "MS": 2983,
      "MY": 2984,
      "MP": 2985,
      "MU": 2986,
      "Min": 2987,
      "Mot": 2988,
      "Mov": 2989,
      "Mid": 2990,
      "Mel": 2991,
      "Mus": 2992,
      "Mant": 2993,
      "Made": 2994,
      "Mand": 2995,
      "Mind": 2996,
      "Mars": 2997,
      "Medi": 2998,
      "Moy": 2999,
      "Mark": 3000,
      "Makes": 3001,
      "Moor": 3002,
      "Muert": 3003,
      "Martial": 3004,
      "Ne": 3005,
      "Now": 3006,
      "Nick": 3007,
      "Nine": 3008,
      "Nich": 3009,
      "Nab": 3010,
      "Nems": 3011,
      "Or": 3012,
      "Ok": 3013,
      "Ob": 3014,
      "Of": 3015,
      "OL": 3016,
      "OH": 3017,
      "Oct": 3018,
      "Over": 3019,
      "Our": 3020,
      "Other": 3021,
      "Original": 3022,
      "Opens": 3023,
      "Ocean": 3024,
      "P9": 3025,
      "Par": 3026,
      "Pit": 3027,
      "Phe": 3028,
      "Pain": 3029,
      "Pass": 3030,
      "Pict": 3031,
      "Pier": 3032,
      "Plus": 3033,
      "Please": 3034,
      "Puert": 3035,
      "Physical": 3036,
      "Ro": 3037,
      "Ry": 3038,
      "RU": 3039,
      "Rin": 3040,
      "Ren": 3041,
      "Red": 3042,
      "Ric": 3043,
      "Rain": 3044,
      "Rich": 3045,
      "Rated": 3046,
      "Rep": 3047,
      "Resident": 3048,
      "Rican": 3049,
      "REA": 3050,
      "Running": 3051,
      "Ruper": 3052,
      "Rising": 3053,
      "Sy": 3054,
      "Sl": 3055,
      "Ser": 3056,
      "Sal": 3057,
      "Sad": 3058,
      "Set": 3059,
      "Sim": 3060,
      "Ster": 3061,
      "Spe": 3062,
      "Sound": 3063,
      "Song": 3064,
      "Sale": 3065,
      "Somet": 3066,
      "Sche": 3067,
      "Sorry": 3068,
      "Super": 3069,
      "Sara": 3070,
      "Sentin": 3071,
      "Tw": 3072,
      "TO": 3073,
      "TC": 3074,
      "TB": 3075,
      "Tor": 3076,
      "Tar": 3077,
      "Tov": 3078,
      "Tay": 3079,
      "Tel": 3080,
      "Town": 3081,
      "Time": 3082,
      "Tomm": 3083,
      "Termin": 3084,
      "Talm": 3085,
      "Um": 3086,
      "Und": 3087,
      "Uet": 3088,
      "Ve": 3089,
      "Vin": 3090,
      "Vot": 3091,
      "Vill": 3092,
      "Voice": 3093,
      "WA": 3094,
      "Wor": 3095,
      "Wal": 3096,
      "Wom": 3097,
      "With": 3098,
      "West": 3099,
      "Wood": 3100,
      "Wave": 3101,
      "WIT": 3102,
      "Wuh": 3103,
      "Willi": 3104,
      "Yo": 3105,
      "Yu": 3106,
      "Yi": 3107,
      "YI": 3108,
      "Yent": 3109,
      "Yid": 3110,
      "Yim": 3111,
      "Your": 3112,
      "Yup": 3113,
      "YEA": 3114,
      "York": 3115,
      "Za": 3116,
      "Zi": 3117,
      "Zomb": 3118,
      "Zac": 3119,
      "ZER": 3120,
      "ak": 3121,
      "ain": 3122,
      "aff": 3123,
      "apt": 3124,
      "aute": 3125,
      "avo": 3126,
      "ahh": 3127,
      "aster": 3128,
      "bo": 3129,
      "bi": 3130,
      "bt": 3131,
      "bed": 3132,
      "bar": 3133,
      "ban": 3134,
      "bre": 3135,
      "boo": 3136,
      "bul": 3137,
      "bun": 3138,
      "bast": 3139,
      "bore": 3140,
      "batch": 3141,
      "band": 3142,
      "bick": 3143,
      "bone": 3144,
      "ball": 3145,
      "bomb": 3146,
      "base": 3147,
      "box": 3148,
      "bank": 3149,
      "baff": 3150,
      "bottom": 3151,
      "cor": 3152,
      "cat": 3153,
      "cand": 3154,
      "cop": 3155,
      "cable": 3156,
      "cine": 3157,
      "card": 3158,
      "cause": 3159,
      "cod": 3160,
      "cell": 3161,
      "city": 3162,
      "cute": 3163,
      "cult": 3164,
      "cub": 3165,
      "cool": 3166,
      "coun": 3167,
      "caus": 3168,
      "cunningly": 3169,
      "dat": 3170,
      "dan": 3171,
      "dre": 3172,
      "dil": 3173,
      "dem": 3174,
      "dest": 3175,
      "due": 3176,
      "dance": 3177,
      "dating": 3178,
      "daz": 3179,
      "dread": 3180,
      "dutiful": 3181,
      "drop": 3182,
      "dedic": 3183,
      "darn": 3184,
      "draw": 3185,
      "eg": 3186,
      "ep": 3187,
      "eq": 3188,
      "eer": 3189,
      "ear": 3190,
      "est": 3191,
      "eight": 3192,
      "ears": 3193,
      "earth": 3194,
      "evil": 3195,
      "fo": 3196,
      "fu": 3197,
      "fan": 3198,
      "fra": 3199,
      "fain": 3200,
      "fist": 3201,
      "fade": 3202,
      "five": 3203,
      "fig": 3204,
      "fian": 3205,
      "fool": 3206,
      "felt": 3207,
      "finger": 3208,
      "field": 3209,
      "fought": 3210,
      "gre": 3211,
      "gle": 3212,
      "gir": 3213,
      "gig": 3214,
      "grit": 3215,
      "glit": 3216,
      "gaps": 3217,
      "games": 3218,
      "grey": 3219,
      "gear": 3220,
      "gems": 3221,
      "hu": 3222,
      "hy": 3223,
      "har": 3224,
      "hot": 3225,
      "hist": 3226,
      "hood": 3227,
      "hall": 3228,
      "hars": 3229,
      "hyp": 3230,
      "hunk": 3231,
      "hike": 3232,
      "hollow": 3233,
      "hmm": 3234,
      "haters": 3235,
      "hires": 3236,
      "hunter": 3237,
      "hints": 3238,
      "ip": 3239,
      "ironic": 3240,
      "jour": 3241,
      "jail": 3242,
      "kis": 3243,
      "kaff": 3244,
      "kern": 3245,
      "kicking": 3246,
      "lu": 3247,
      "la": 3248,
      "les": 3249,
      "lou": 3250,
      "led": 3251,
      "lie": 3252,
      "lad": 3253,
      "lust": 3254,
      "lous": 3255,
      "latch": 3256,
      "land": 3257,
      "lost": 3258,
      "los": 3259,
      "log": 3260,
      "local": 3261,
      "loony": 3262,
      "locked": 3263,
      "lazy": 3264,
      "mat": 3265,
      "mon": 3266,
      "mut": 3267,
      "mid": 3268,
      "mill": 3269,
      "mood": 3270,
      "mere": 3271,
      "mish": 3272,
      "mile": 3273,
      "mach": 3274,
      "mater": 3275,
      "mock": 3276,
      "mail": 3277,
      "mugg": 3278,
      "medic": 3279,
      "mouth": 3280,
      "murd": 3281,
      "marry": 3282,
      "martial": 3283,
      "non": 3284,
      "nit": 3285,
      "nom": 3286,
      "nut": 3287,
      "net": 3288,
      "nem": 3289,
      "nak": 3290,
      "num": 3291,
      "nons": 3292,
      "names": 3293,
      "oo": 3294,
      "ox": 3295,
      "opt": 3296,
      "oedi": 3297,
      "oper": 3298,
      "ocean": 3299,
      "pin": 3300,
      "pal": 3301,
      "pit": 3302,
      "pan": 3303,
      "ple": 3304,
      "pout": 3305,
      "pus": 3306,
      "pud": 3307,
      "pack": 3308,
      "pays": 3309,
      "page": 3310,
      "pne": 3311,
      "pics": 3312,
      "papers": 3313,
      "physical": 3314,
      "rat": 3315,
      "rom": 3316,
      "rot": 3317,
      "rough": 3318,
      "rous": 3319,
      "rand": 3320,
      "rab": 3321,
      "rating": 3322,
      "rip": 3323,
      "rare": 3324,
      "race": 3325,
      "rub": 3326,
      "rise": 3327,
      "rave": 3328,
      "rival": 3329,
      "rude": 3330,
      "sy": 3331,
      "sé": 3332,
      "sen": 3333,
      "sou": 3334,
      "ske": 3335,
      "sim": 3336,
      "sun": 3337,
      "sack": 3338,
      "sine": 3339,
      "sight": 3340,
      "sass": 3341,
      "says": 3342,
      "side": 3343,
      "sung": 3344,
      "syn": 3345,
      "s02": 3346,
      "tv": 3347,
      "ton": 3348,
      "test": 3349,
      "tag": 3350,
      "tone": 3351,
      "tend": 3352,
      "tedi": 3353,
      "tale": 3354,
      "tail": 3355,
      "typ": 3356,
      "tiny": 3357,
      "tired": 3358,
      "ug": 3359,
      "vo": 3360,
      "vu": 3361,
      "va": 3362,
      "van": 3363,
      "vul": 3364,
      "vill": 3365,
      "vind": 3366,
      "vig": 3367,
      "vict": 3368,
      "various": 3369,
      "vac": 3370,
      "vague": 3371,
      "wed": 3372,
      "wal": 3373,
      "wan": 3374,
      "wre": 3375,
      "wow": 3376,
      "west": 3377,
      "wound": 3378,
      "wand": 3379,
      "wide": 3380,
      "water": 3381,
      "wield": 3382,
      "xp": 3383,
      "xine": 3384,
      "zo": 3385,
      "zer": 3386,
      "zone": 3387,
      "zap": 3388,
      "zapp": 3389,
      "##ole": 3390,
      "##oid": 3391,
      "##opp": 3392,
      "##oated": 3393,
      "##oqu": 3394,
      "##oating": 3395,
      "##oppy": 3396,
      "##rer": 3397,
      "##ren": 3398,
      "##res": 3399,
      "##rat": 3400,
      "##red": 3401,
      "##rus": 3402,
      "##rous": 3403,
      "##rud": 3404,
      "##ratch": 3405,
      "##round": 3406,
      "##rays": 3407,
      "##rical": 3408,
      "##ruck": 3409,
      "##rase": 3410,
      "##rasy": 3411,
      "##ky": 3412,
      "##kon": 3413,
      "##kill": 3414,
      "##kins": 3415,
      "##eb": 3416,
      "##e0": 3417,
      "##eer": 3418,
      "##eal": 3419,
      "##eot": 3420,
      "##even": 3421,
      "##eine": 3422,
      "##eks": 3423,
      "##efulness": 3424,
      "##sa": 3425,
      "##sw": 3426,
      "##sh": 3427,
      "##sp": 3428,
      "##sm": 3429,
      "##sat": 3430,
      "##sit": 3431,
      "##sess": 3432,
      "##sies": 3433,
      "##sure": 3434,
      "##sles": 3435,
      "##spect": 3436,
      "##sily": 3437,
      "##sons": 3438,
      "##ship": 3439,
      "##skill": 3440,
      "##ug": 3441,
      "##uc": 3442,
      "##ues": 3443,
      "##uing": 3444,
      "##uly": 3445,
      "##uri": 3446,
      "##uim": 3447,
      "##uous": 3448,
      "##uum": 3449,
      "##uable": 3450,
      "##uish": 3451,
      "##uence": 3452,
      "##uity": 3453,
      "##uided": 3454,
      "##uitous": 3455,
      "##av": 3456,
      "##aal": 3457,
      "##aam": 3458,
      "##air": 3459,
      "##aim": 3460,
      "##ape": 3461,
      "##aving": 3462,
      "##after": 3463,
      "##ails": 3464,
      "##ior": 3465,
      "##iest": 3466,
      "##iers": 3467,
      "##iff": 3468,
      "##ius": 3469,
      "##iate": 3470,
      "##wy": 3471,
      "##wart": 3472,
      "##writ": 3473,
      "##waters": 3474,
      "##waves": 3475,
      "##work": 3476,
      "##tent": 3477,
      "##tion": 3478,
      "##tim": 3479,
      "##tick": 3480,
      "##table": 3481,
      "##tation": 3482,
      "##tour": 3483,
      "##tier": 3484,
      "##time": 3485,
      "##takes": 3486,
      "##nat": 3487,
      "##nal": 3488,
      "##net": 3489,
      "##ners": 3490,
      "##nol": 3491,
      "##nig": 3492,
      "##nating": 3493,
      "##nia": 3494,
      "##nger": 3495,
      "##nox": 3496,
      "##nize": 3497,
      "##niest": 3498,
      "##yi": 3499,
      "##yond": 3500,
      "##yright": 3501,
      "##lor": 3502,
      "##las": 3503,
      "##lil": 3504,
      "##lig": 3505,
      "##look": 3506,
      "##line": 3507,
      "##lated": 3508,
      "##lord": 3509,
      "##life": 3510,
      "##lier": 3511,
      "##lah": 3512,
      "##like": 3513,
      "##lton": 3514,
      "##load": 3515,
      "##luster": 3516,
      "##leston": 3517,
      "##licking": 3518,
      "##luence": 3519,
      "##gy": 3520,
      "##gen": 3521,
      "##gan": 3522,
      "##gid": 3523,
      "##game": 3524,
      "##gles": 3525,
      "##gia": 3526,
      "##gott": 3527,
      "##gular": 3528,
      "##guided": 3529,
      "##glas": 3530,
      "##cer": 3531,
      "##con": 3532,
      "##cre": 3533,
      "##cie": 3534,
      "##cri": 3535,
      "##cra": 3536,
      "##come": 3537,
      "##core": 3538,
      "##cind": 3539,
      "##cere": 3540,
      "##cog": 3541,
      "##cause": 3542,
      "##cue": 3543,
      "##corn": 3544,
      "##cise": 3545,
      "##cée": 3546,
      "##cara": 3547,
      "##crasy": 3548,
      "##hor": 3549,
      "##hed": 3550,
      "##hot": 3551,
      "##had": 3552,
      "##how": 3553,
      "##hood": 3554,
      "##happ": 3555,
      "##house": 3556,
      "##hamed": 3557,
      "##hfulness": 3558,
      "##hrase": 3559,
      "##IC": 3560,
      "##ILL": 3561,
      "##KES": 3562,
      "##END": 3563,
      "##SIC": 3564,
      "##vit": 3565,
      "##vest": 3566,
      "##vour": 3567,
      "##vance": 3568,
      "##vice": 3569,
      "##via": 3570,
      "##varn": 3571,
      "##vades": 3572,
      "##xty": 3573,
      "##xuri": 3574,
      "##pal": 3575,
      "##par": 3576,
      "##pent": 3577,
      "##pend": 3578,
      "##pond": 3579,
      "##port": 3580,
      "##pose": 3581,
      "##pleas": 3582,
      "##pared": 3583,
      "##pals": 3584,
      "##ds": 3585,
      "##dor": 3586,
      "##dom": 3587,
      "##dle": 3588,
      "##day": 3589,
      "##dain": 3590,
      "##dies": 3591,
      "##done": 3592,
      "##dish": 3593,
      "##down": 3594,
      "##dash": 3595,
      "##dden": 3596,
      "##bt": 3597,
      "##bes": 3598,
      "##bat": 3599,
      "##bil": 3600,
      "##bid": 3601,
      "##bble": 3602,
      "##bul": 3603,
      "##ball": 3604,
      "##bbe": 3605,
      "##bare": 3606,
      "##body": 3607,
      "##box": 3608,
      "##bac": 3609,
      "##bling": 3610,
      "##brow": 3611,
      "##buster": 3612,
      "##backs": 3613,
      "##fun": 3614,
      "##fically": 3615,
      "##fold": 3616,
      "##finger": 3617,
      "##mir": 3618,
      "##mem": 3619,
      "##mate": 3620,
      "##medi": 3621,
      "##mless": 3622,
      "##minal": 3623,
      "##mier": 3624,
      "##NN": 3625,
      "##DD": 3626,
      "##DF": 3627,
      "##zz": 3628,
      "##zen": 3629,
      "##zling": 3630,
      "##OS": 3631,
      "##3K": 3632,
      "##jo": 3633,
      "##ject": 3634,
      "##jew": 3635,
      "##AP": 3636,
      "##AT": 3637,
      "##AR": 3638,
      "##PP": 3639,
      "##Fest": 3640,
      "##FOS": 3641,
      "##TING": 3642,
      "##TDF": 3643,
      "##T3K": 3644,
      "##RS": 3645,
      "##RA": 3646,
      "##RB": 3647,
      "##ROU": 3648,
      "##REND": 3649,
      "##Cain": 3650,
      "##10": 3651,
      "##GH": 3652,
      "##Graw": 3653,
      "##ías": 3654,
      "thir": 3655,
      "thous": 3656,
      "thread": 3657,
      "thicken": 3658,
      "theaters": 3659,
      "##erable": 3660,
      "##erence": 3661,
      "##erved": 3662,
      "##erground": 3663,
      "##erior": 3664,
      "##ergy": 3665,
      "##ercise": 3666,
      "##ino": 3667,
      "##inci": 3668,
      "##inity": 3669,
      "##incy": 3670,
      "##inition": 3671,
      "##ena": 3672,
      "##enom": 3673,
      "##enade": 3674,
      "##enge": 3675,
      "##ores": 3676,
      "##orch": 3677,
      "##orter": 3678,
      "##orious": 3679,
      "##orable": 3680,
      "##orney": 3681,
      "##orrow": 3682,
      "##orbing": 3683,
      "##esen": 3684,
      "##esis": 3685,
      "##esum": 3686,
      "##eserved": 3687,
      "##aty": 3688,
      "##aton": 3689,
      "##atus": 3690,
      "##atant": 3691,
      "##atically": 3692,
      "##attractive": 3693,
      "##atuitous": 3694,
      "##ndan": 3695,
      "##inge": 3696,
      "##inguish": 3697,
      "##eding": 3698,
      "##oned": 3699,
      "##onic": 3700,
      "##onent": 3701,
      "##onia": 3702,
      "##isk": 3703,
      "##iser": 3704,
      "##ised": 3705,
      "##isance": 3706,
      "##istering": 3707,
      "##isode": 3708,
      "##issa": 3709,
      "toot": 3710,
      "toast": 3711,
      "topl": 3712,
      "toss": 3713,
      "toons": 3714,
      "today": 3715,
      "##aled": 3716,
      "##alom": 3717,
      "##alers": 3718,
      "##alth": 3719,
      "##alks": 3720,
      "##alism": 3721,
      "##alwart": 3722,
      "##algia": 3723,
      "##arit": 3724,
      "##arch": 3725,
      "##arling": 3726,
      "##arías": 3727,
      "##lyn": 3728,
      "##ites": 3729,
      "##itel": 3730,
      "##itect": 3731,
      "##itation": 3732,
      "##itory": 3733,
      "##itting": 3734,
      "##itman": 3735,
      "##itime": 3736,
      "##itude": 3737,
      "##itiate": 3738,
      "##ane": 3739,
      "##any": 3740,
      "##aner": 3741,
      "##anch": 3742,
      "##anation": 3743,
      "##anical": 3744,
      "##anced": 3745,
      "##anied": 3746,
      "##anna": 3747,
      "##anges": 3748,
      "##rel": 3749,
      "##reed": 3750,
      "##real": 3751,
      "##rele": 3752,
      "##asp": 3753,
      "##asing": 3754,
      "##ased": 3755,
      "##aster": 3756,
      "##ashy": 3757,
      "inade": 3758,
      "inform": 3759,
      "inert": 3760,
      "inapp": 3761,
      "inoff": 3762,
      "inbox": 3763,
      "initiate": 3764,
      "brow": 3765,
      "brand": 3766,
      "brick": 3767,
      "brig": 3768,
      "bright": 3769,
      "brave": 3770,
      "broad": 3771,
      "brought": 3772,
      "brilli": 3773,
      "brisk": 3774,
      "##oma": 3775,
      "##omes": 3776,
      "##omine": 3777,
      "##omiz": 3778,
      "##ilà": 3779,
      "##ilot": 3780,
      "##ilight": 3781,
      "##ilos": 3782,
      "##ilarit": 3783,
      "##cted": 3784,
      "##ctic": 3785,
      "##ctum": 3786,
      "##ctac": 3787,
      "##ctrical": 3788,
      "##otes": 3789,
      "##oting": 3790,
      "##otic": 3791,
      "##otage": 3792,
      "##otype": 3793,
      "##ico": 3794,
      "##ices": 3795,
      "##iche": 3796,
      "##icop": 3797,
      "##icable": 3798,
      "##icence": 3799,
      "##ications": 3800,
      "##icism": 3801,
      "##icates": 3802,
      "##iet": 3803,
      "##lets": 3804,
      "##lepoint": 3805,
      "##ution": 3806,
      "##utation": 3807,
      "##utral": 3808,
      "##uthfulness": 3809,
      "##oving": 3810,
      "##ovid": 3811,
      "##ovanna": 3812,
      "behe": 3813,
      "beet": 3814,
      "began": 3815,
      "##stra": 3816,
      "##stood": 3817,
      "##stated": 3818,
      "##stru": 3819,
      "##stified": 3820,
      "##struck": 3821,
      "##stalgia": 3822,
      "##ads": 3823,
      "##aded": 3824,
      "##adually": 3825,
      "##hemer": 3826,
      "##hecy": 3827,
      "ones": 3828,
      "onto": 3829,
      "thats": 3830,
      "move": 3831,
      "moved": 3832,
      "##ows": 3833,
      "##owd": 3834,
      "##owing": 3835,
      "##owitz": 3836,
      "rein": 3837,
      "rear": 3838,
      "reve": 3839,
      "rever": 3840,
      "reel": 3841,
      "reven": 3842,
      "requ": 3843,
      "retain": 3844,
      "received": 3845,
      "regard": 3846,
      "reeks": 3847,
      "rectum": 3848,
      "##ents": 3849,
      "##entive": 3850,
      "##entious": 3851,
      "##entially": 3852,
      "whom": 3853,
      "whate": 3854,
      "whaling": 3855,
      "whiny": 3856,
      "##vey": 3857,
      "##ett": 3858,
      "##ety": 3859,
      "##eth": 3860,
      "##ette": 3861,
      "##etence": 3862,
      "##etold": 3863,
      "##etings": 3864,
      "##etime": 3865,
      "##kel": 3866,
      "##ayer": 3867,
      "##llent": 3868,
      "##llings": 3869,
      "stro": 3870,
      "stick": 3871,
      "station": 3872,
      "stere": 3873,
      "stays": 3874,
      "stink": 3875,
      "stead": 3876,
      "stee": 3877,
      "static": 3878,
      "stained": 3879,
      "stunts": 3880,
      "stalker": 3881,
      "stunningly": 3882,
      "steal": 3883,
      "status": 3884,
      "stalwart": 3885,
      "foray": 3886,
      "forty": 3887,
      "forced": 3888,
      "foreg": 3889,
      "forbid": 3890,
      "foretold": 3891,
      "ask": 3892,
      "aside": 3893,
      "asks": 3894,
      "asso": 3895,
      "asking": 3896,
      "ashamed": 3897,
      "wasting": 3898,
      "##ghag": 3899,
      "##chically": 3900,
      "##chered": 3901,
      "##chnol": 3902,
      "##chitect": 3903,
      "##chanical": 3904,
      "without": 3905,
      "##sequ": 3906,
      "anger": 3907,
      "anti": 3908,
      "answ": 3909,
      "angular": 3910,
      "##idate": 3911,
      "##idges": 3912,
      "##ldsh": 3913,
      "sea": 3914,
      "sex": 3915,
      "seam": 3916,
      "seven": 3917,
      "seamed": 3918,
      "select": 3919,
      "segments": 3920,
      "separ": 3921,
      "search": 3922,
      "##ceits": 3923,
      "##cellent": 3924,
      "##ama": 3925,
      "##amic": 3926,
      "##amine": 3927,
      "##herent": 3928,
      "filled": 3929,
      "filler": 3930,
      "##irt": 3931,
      "lip": 3932,
      "lived": 3933,
      "liber": 3934,
      "limit": 3935,
      "livest": 3936,
      "##rix": 3937,
      "##ried": 3938,
      "##riate": 3939,
      "##riks": 3940,
      "##rived": 3941,
      "##ribut": 3942,
      "##oog": 3943,
      "##oof": 3944,
      "##oose": 3945,
      "##verting": 3946,
      "filmed": 3947,
      "filmdom": 3948,
      "youth": 3949,
      "younger": 3950,
      "scorn": 3951,
      "scary": 3952,
      "scuff": 3953,
      "scratch": 3954,
      "scorch": 3955,
      "schemer": 3956,
      "##essible": 3957,
      "hair": 3958,
      "haven": 3959,
      "noted": 3960,
      "notion": 3961,
      "nother": 3962,
      "notice": 3963,
      "##imsily": 3964,
      "butchered": 3965,
      "shake": 3966,
      "shak": 3967,
      "shant": 3968,
      "ship": 3969,
      "shouting": 3970,
      "shirt": 3971,
      "##raf": 3972,
      "##rain": 3973,
      "##racing": 3974,
      "##raiser": 3975,
      "##racted": 3976,
      "acts": 3977,
      "acted": 3978,
      "##cky": 3979,
      "##ters": 3980,
      "##terful": 3981,
      "##ternating": 3982,
      "##terhouse": 3983,
      "##ustry": 3984,
      "##emmas": 3985,
      "##roy": 3986,
      "##rope": 3987,
      "##robably": 3988,
      "##rocious": 3989,
      "##ests": 3990,
      "##estions": 3991,
      "##estring": 3992,
      "worm": 3993,
      "##aine": 3994,
      "##aining": 3995,
      "##ainst": 3996,
      "##ainous": 3997,
      "##els": 3998,
      "##elry": 3999,
      "##ellect": 4000,
      "##urish": 4001,
      "##urred": 4002,
      "##unched": 4003,
      "comical": 4004,
      "comically": 4005,
      "comfort": 4006,
      "combat": 4007,
      "##ersole": 4008,
      "dog": 4009,
      "dose": 4010,
      "soon": 4011,
      "soap": 4012,
      "soft": 4013,
      "solic": 4014,
      "solil": 4015,
      "socie": 4016,
      "atomiz": 4017,
      "plus": 4018,
      "plight": 4019,
      "plod": 4020,
      "plenty": 4021,
      "placed": 4022,
      "plane": 4023,
      "chic": 4024,
      "chart": 4025,
      "chop": 4026,
      "chall": 4027,
      "chos": 4028,
      "chance": 4029,
      "chuck": 4030,
      "chock": 4031,
      "chalk": 4032,
      "chime": 4033,
      "choice": 4034,
      "change": 4035,
      "chains": 4036,
      "chopp": 4037,
      "changes": 4038,
      "chasing": 4039,
      "choose": 4040,
      "heck": 4041,
      "heart": 4042,
      "hebre": 4043,
      "heav": 4044,
      "health": 4045,
      "##pear": 4046,
      "##ffs": 4047,
      "##fferson": 4048,
      "##ffee": 4049,
      "##iller": 4050,
      "conqu": 4051,
      "contain": 4052,
      "congr": 4053,
      "constra": 4054,
      "conceits": 4055,
      "deep": 4056,
      "deja": 4057,
      "depress": 4058,
      "dearz": 4059,
      "depend": 4060,
      "debac": 4061,
      "dealers": 4062,
      "orth": 4063,
      "##uses": 4064,
      "##ushing": 4065,
      "##usions": 4066,
      "##pty": 4067,
      "##pting": 4068,
      "##ptitude": 4069,
      "Think": 4070,
      "Thorn": 4071,
      "somehow": 4072,
      "allusions": 4073,
      "diverting": 4074,
      "exit": 4075,
      "extra": 4076,
      "exceed": 4077,
      "expens": 4078,
      "expense": 4079,
      "expose": 4080,
      "exercise": 4081,
      "excellent": 4082,
      "examine": 4083,
      "##ages": 4084,
      "##aging": 4085,
      "##agers": 4086,
      "##agand": 4087,
      "##agne": 4088,
      "##agship": 4089,
      "##istent": 4090,
      "meat": 4091,
      "meets": 4092,
      "meetings": 4093,
      "mechanical": 4094,
      "suse": 4095,
      "sugg": 4096,
      "summ": 4097,
      "sucks": 4098,
      "sudden": 4099,
      "weak": 4100,
      "wears": 4101,
      "weather": 4102,
      "abru": 4103,
      "nobody": 4104,
      "nostalgia": 4105,
      "ups": 4106,
      "upon": 4107,
      "sheet": 4108,
      "##acting": 4109,
      "##acted": 4110,
      "##asts": 4111,
      "##astrop": 4112,
      "##oodwaters": 4113,
      "ensure": 4114,
      "energy": 4115,
      "##thau": 4116,
      "popp": 4117,
      "poise": 4118,
      "polish": 4119,
      "posit": 4120,
      "##ums": 4121,
      "##umi": 4122,
      "##umes": 4123,
      "##umonia": 4124,
      "##ants": 4125,
      "##anted": 4126,
      "##antly": 4127,
      "##antasm": 4128,
      "##antino": 4129,
      "fresh": 4130,
      "franch": 4131,
      "##udes": 4132,
      "##udic": 4133,
      "##udian": 4134,
      "##ppling": 4135,
      "unimp": 4136,
      "unapp": 4137,
      "unex": 4138,
      "uneven": 4139,
      "unskill": 4140,
      "unlike": 4141,
      "uncon": 4142,
      "unhapp": 4143,
      "unvarn": 4144,
      "unpleas": 4145,
      "unfold": 4146,
      "unmem": 4147,
      "unattractive": 4148,
      "unreal": 4149,
      "##andled": 4150,
      "anytime": 4151,
      "outstand": 4152,
      "outtakes": 4153,
      "outcome": 4154,
      "proper": 4155,
      "prostit": 4156,
      "prods": 4157,
      "hasn": 4158,
      "hassles": 4159,
      "thereafter": 4160,
      "seeks": 4161,
      "near": 4162,
      "needy": 4163,
      "nearly": 4164,
      "neither": 4165,
      "neigh": 4166,
      "neutral": 4167,
      "##opher": 4168,
      "##opilot": 4169,
      "##fully": 4170,
      "##allowed": 4171,
      "alive": 4172,
      "alike": 4173,
      "although": 4174,
      "alright": 4175,
      "already": 4176,
      "alternating": 4177,
      "##olar": 4178,
      "##olson": 4179,
      "##olution": 4180,
      "whenever": 4181,
      "##ige": 4182,
      "##igl": 4183,
      "##igible": 4184,
      "##igdor": 4185,
      "##ateurish": 4186,
      "mystified": 4187,
      "##ooklyn": 4188,
      "prequ": 4189,
      "preach": 4190,
      "preaches": 4191,
      "precious": 4192,
      "prepared": 4193,
      "premier": 4194,
      "trade": 4195,
      "trend": 4196,
      "truck": 4197,
      "truly": 4198,
      "truthfulness": 4199,
      "watcher": 4200,
      "watchable": 4201,
      "shower": 4202,
      "showed": 4203,
      "leering": 4204,
      "learn": 4205,
      "leaves": 4206,
      "leaving": 4207,
      "##endent": 4208,
      "##endous": 4209,
      "##ardo": 4210,
      "##ardian": 4211,
      "whatso": 4212,
      "charge": 4213,
      "flight": 4214,
      "flash": 4215,
      "floor": 4216,
      "floating": 4217,
      "flashy": 4218,
      "flimsily": 4219,
      "flagship": 4220,
      "knew": 4221,
      "##ightly": 4222,
      "##ightest": 4223,
      "thrown": 4224,
      "thriller": 4225,
      "faced": 4226,
      "facial": 4227,
      "favour": 4228,
      "faghag": 4229,
      "##fornia": 4230,
      "##rected": 4231,
      "intrig": 4232,
      "intention": 4233,
      "intens": 4234,
      "intended": 4235,
      "intrus": 4236,
      "intellect": 4237,
      "knowled": 4238,
      "manage": 4239,
      "pervades": 4240,
      "wouldn": 4241,
      "##apons": 4242,
      "##aphrase": 4243,
      "##apdash": 4244,
      "##apitation": 4245,
      "##appear": 4246,
      "##getab": 4247,
      "##ciated": 4248,
      "##cific": 4249,
      "##cientious": 4250,
      "thanks": 4251,
      "storyline": 4252,
      "age": 4253,
      "agree": 4254,
      "agreed": 4255,
      "##ondie": 4256,
      "directors": 4257,
      "Which": 4258,
      "While": 4259,
      "feeding": 4260,
      "##ritating": 4261,
      "##abeth": 4262,
      "##orsze": 4263,
      "became": 4264,
      "becomes": 4265,
      "composed": 4266,
      "complic": 4267,
      "compared": 4268,
      "compris": 4269,
      "comparing": 4270,
      "awake": 4271,
      "awards": 4272,
      "everybody": 4273,
      "overlook": 4274,
      "overdone": 4275,
      "overstated": 4276,
      "overacting": 4277,
      "price": 4278,
      "prove": 4279,
      "proves": 4280,
      "prestig": 4281,
      "princi": 4282,
      "presum": 4283,
      "provid": 4284,
      "span": 4285,
      "spark": 4286,
      "spends": 4287,
      "spott": 4288,
      "spread": 4289,
      "sparks": 4290,
      "spouting": 4291,
      "spitting": 4292,
      "spoof": 4293,
      "##ober": 4294,
      "##obic": 4295,
      "theme": 4296,
      "themselves": 4297,
      "##arship": 4298,
      "offering": 4299,
      "betrays": 4300,
      "seeming": 4301,
      "seemed": 4302,
      "seemingly": 4303,
      "##oses": 4304,
      "##osyn": 4305,
      "##ogy": 4306,
      "##hingly": 4307,
      "##ploy": 4308,
      "##plained": 4309,
      "##inkled": 4310,
      "##ortant": 4311,
      "##ortive": 4312,
      "workers": 4313,
      "firm": 4314,
      "fired": 4315,
      "##odox": 4316,
      "##inton": 4317,
      "##ishly": 4318,
      "##iteurs": 4319,
      "pretension": 4320,
      "prettier": 4321,
      "arc": 4322,
      "aren": 4323,
      "architect": 4324,
      "admit": 4325,
      "admir": 4326,
      "bless": 4327,
      "blades": 4328,
      "blocked": 4329,
      "blatant": 4330,
      "blistering": 4331,
      "blows": 4332,
      "blurred": 4333,
      "mins": 4334,
      "##iva": 4335,
      "##ivation": 4336,
      "##perate": 4337,
      "##seless": 4338,
      "yours": 4339,
      "yourself": 4340,
      "Aside": 4341,
      "Asumi": 4342,
      "others": 4343,
      "twist": 4344,
      "twilight": 4345,
      "undyn": 4346,
      "undeserved": 4347,
      "##uals": 4348,
      "##formances": 4349,
      "Hey": 4350,
      "Heigl": 4351,
      "Inspect": 4352,
      "backside": 4353,
      "close": 4354,
      "claim": 4355,
      "cliff": 4356,
      "cliche": 4357,
      "humili": 4358,
      "image": 4359,
      "immedi": 4360,
      "images": 4361,
      "particul": 4362,
      "server": 4363,
      "serving": 4364,
      "serial": 4365,
      "term": 4366,
      "terms": 4367,
      "terrain": 4368,
      "users": 4369,
      "usual": 4370,
      "writers": 4371,
      "##ifer": 4372,
      "investig": 4373,
      "invites": 4374,
      "inventive": 4375,
      "belt": 4376,
      "below": 4377,
      "belabor": 4378,
      "remade": 4379,
      "remove": 4380,
      "remarks": 4381,
      "remains": 4382,
      "removing": 4383,
      "remaining": 4384,
      "Chow": 4385,
      "Child": 4386,
      "roll": 4387,
      "roomm": 4388,
      "roaring": 4389,
      "rocky": 4390,
      "spectac": 4391,
      "##quate": 4392,
      "##ctions": 4393,
      "undermin": 4394,
      "underlying": 4395,
      "understood": 4396,
      "buddies": 4397,
      "guiding": 4398,
      "guardian": 4399,
      "##begott": 4400,
      "insight": 4401,
      "insip": 4402,
      "insub": 4403,
      "insuff": 4404,
      "intercut": 4405,
      "intermit": 4406,
      "internet": 4407,
      "##ampoo": 4408,
      "peoples": 4409,
      "Another": 4410,
      "Anton": 4411,
      "Anti": 4412,
      "ambul": 4413,
      "amateurish": 4414,
      "funky": 4415,
      "funniest": 4416,
      "grade": 4417,
      "grenade": 4418,
      "gratuitous": 4419,
      "grasp": 4420,
      "gradually": 4421,
      "mayhem": 4422,
      "sits": 4423,
      "siting": 4424,
      "sounding": 4425,
      "sounded": 4426,
      "##rorFest": 4427,
      "##eping": 4428,
      "##ependent": 4429,
      "##upation": 4430,
      "realism": 4431,
      "realistic": 4432,
      "screenplays": 4433,
      "screenwrit": 4434,
      "10th": 4435,
      "chew": 4436,
      "cheater": 4437,
      "cheese": 4438,
      "obsess": 4439,
      "obnox": 4440,
      "oblig": 4441,
      "obstru": 4442,
      "##ression": 4443,
      "##ressive": 4444,
      "##velous": 4445,
      "scripts": 4446,
      "produce": 4447,
      "producing": 4448,
      "producer": 4449,
      "performs": 4450,
      "performed": 4451,
      "afterlife": 4452,
      "desire": 4453,
      "desert": 4454,
      "design": 4455,
      "designed": 4456,
      "descri": 4457,
      "downright": 4458,
      "download": 4459,
      "greatness": 4460,
      "lover": 4461,
      "quaal": 4462,
      "quotes": 4463,
      "questions": 4464,
      "slip": 4465,
      "slaugh": 4466,
      "slurp": 4467,
      "sloppy": 4468,
      "slightest": 4469,
      "slapdash": 4470,
      "tear": 4471,
      "technol": 4472,
      "traits": 4473,
      "wanting": 4474,
      "##ipment": 4475,
      "took": 4476,
      "##ceptable": 4477,
      "shouldn": 4478,
      "##pective": 4479,
      "completion": 4480,
      "sawbl": 4481,
      "impact": 4482,
      "imperson": 4483,
      "impotent": 4484,
      "improbably": 4485,
      "important": 4486,
      "impression": 4487,
      "interested": 4488,
      "Story": 4489,
      "Starb": 4490,
      "Storsze": 4491,
      "Starship": 4492,
      "calling": 4493,
      "factor": 4494,
      "genius": 4495,
      "older": 4496,
      "opening": 4497,
      "##traction": 4498,
      "##cingly": 4499,
      "characteristic": 4500,
      "everyone": 4501,
      "specialist": 4502,
      "Reilly": 4503,
      "Regard": 4504,
      "Regen": 4505,
      "Recog": 4506,
      "Rebbe": 4507,
      "Reitman": 4508,
      "Seung": 4509,
      "Secre": 4510,
      "Seeping": 4511,
      "audio": 4512,
      "audien": 4513,
      "auditory": 4514,
      "built": 4515,
      "buried": 4516,
      "buffs": 4517,
      "kindness": 4518,
      "literally": 4519,
      "litany": 4520,
      "longer": 4521,
      "longest": 4522,
      "laughing": 4523,
      "laughed": 4524,
      "laughter": 4525,
      "misspe": 4526,
      "misuse": 4527,
      "miscast": 4528,
      "misguided": 4529,
      "misbegott": 4530,
      "musical": 4531,
      "pieces": 4532,
      "painting": 4533,
      "paintings": 4534,
      "visit": 4535,
      "visually": 4536,
      "visiteurs": 4537,
      "##ocre": 4538,
      "##ocrat": 4539,
      "##iac": 4540,
      "##izing": 4541,
      "##izabeth": 4542,
      "##gerald": 4543,
      "##bert": 4544,
      "##isoned": 4545,
      "reader": 4546,
      "reading": 4547,
      "reasons": 4548,
      "reasonably": 4549,
      "strange": 4550,
      "stricken": 4551,
      "shots": 4552,
      "actions": 4553,
      "contempt": 4554,
      "contrived": 4555,
      "contacted": 4556,
      "decade": 4557,
      "decapitation": 4558,
      "subway": 4559,
      "substance": 4560,
      "subject": 4561,
      "subsequ": 4562,
      "pointed": 4563,
      "needs": 4564,
      "needing": 4565,
      "needed": 4566,
      "needlepoint": 4567,
      "womanand": 4568,
      "Atten": 4569,
      "Atkins": 4570,
      "Attour": 4571,
      "Atrocious": 4572,
      "Attraction": 4573,
      "Ali": 4574,
      "Also": 4575,
      "Alto": 4576,
      "Already": 4577,
      "Albert": 4578,
      "cleaner": 4579,
      "element": 4580,
      "election": 4581,
      "eleph": 4582,
      "electrical": 4583,
      "glad": 4584,
      "glass": 4585,
      "glaring": 4586,
      "gloves": 4587,
      "gliding": 4588,
      "glowing": 4589,
      "indef": 4590,
      "indicating": 4591,
      "indicates": 4592,
      "industry": 4593,
      "independent": 4594,
      "listen": 4595,
      "listed": 4596,
      "listening": 4597,
      "result": 4598,
      "resident": 4599,
      "respects": 4600,
      "resear": 4601,
      "resorts": 4602,
      "rescue": 4603,
      "respond": 4604,
      "resolution": 4605,
      "running": 4606,
      "runner": 4607,
      "runners": 4608,
      "turgid": 4609,
      "wont": 4610,
      "##ockbuster": 4611,
      "##azine": 4612,
      "##ictive": 4613,
      "##ordinated": 4614,
      "started": 4615,
      "stupor": 4616,
      "stupendous": 4617,
      "lifeless": 4618,
      "##elessly": 4619,
      "enjoyed": 4620,
      "enjoyment": 4621,
      "feels": 4622,
      "feeling": 4623,
      "feelings": 4624,
      "Palestine": 4625,
      "bestowed": 4626,
      "coherent": 4627,
      "coffee": 4628,
      "coordinated": 4629,
      "crash": 4630,
      "cringe": 4631,
      "crowd": 4632,
      "crushing": 4633,
      "drug": 4634,
      "drums": 4635,
      "elabor": 4636,
      "eligible": 4637,
      "girls": 4638,
      "hilt": 4639,
      "hardness": 4640,
      "hardcore": 4641,
      "illness": 4642,
      "keen": 4643,
      "kids": 4644,
      "lets": 4645,
      "lessons": 4646,
      "lacking": 4647,
      "lackluster": 4648,
      "motors": 4649,
      "motions": 4650,
      "motives": 4651,
      "motivation": 4652,
      "owner": 4653,
      "passes": 4654,
      "passed": 4655,
      "passable": 4656,
      "passage": 4657,
      "schtick": 4658,
      "scholar": 4659,
      "surly": 4660,
      "surround": 4661,
      "talking": 4662,
      "tried": 4663,
      "trial": 4664,
      "trials": 4665,
      "trivia": 4666,
      "tribil": 4667,
      "##away": 4668,
      "##awking": 4669,
      "##vincing": 4670,
      "##fts": 4671,
      "##insibly": 4672,
      "##ensive": 4673,
      "##ensical": 4674,
      "##atively": 4675,
      "##arently": 4676,
      "inclus": 4677,
      "incomp": 4678,
      "relish": 4679,
      "relations": 4680,
      "reluct": 4681,
      "reload": 4682,
      "relatively": 4683,
      "recite": 4684,
      "record": 4685,
      "recording": 4686,
      "worthy": 4687,
      "defense": 4688,
      "definite": 4689,
      "definitely": 4690,
      "definition": 4691,
      "supportive": 4692,
      "absorbing": 4693,
      "entail": 4694,
      "newsp": 4695,
      "adds": 4696,
      "addition": 4697,
      "##neyed": 4698,
      "Charlton": 4699,
      "appeal": 4700,
      "Arts": 4701,
      "Arctic": 4702,
      "Away": 4703,
      "Everybody": 4704,
      "Everett": 4705,
      "Goldsm": 4706,
      "Goldfinger": 4707,
      "Joe": 4708,
      "NOT": 4709,
      "NOOO": 4710,
      "Present": 4711,
      "Proog": 4712,
      "based": 4713,
      "basic": 4714,
      "bottle": 4715,
      "crack": 4716,
      "craft": 4717,
      "crappy": 4718,
      "campers": 4719,
      "disapp": 4720,
      "disbelie": 4721,
      "displays": 4722,
      "disdain": 4723,
      "disaster": 4724,
      "disappear": 4725,
      "empty": 4726,
      "employ": 4727,
      "falls": 4728,
      "fallen": 4729,
      "falling": 4730,
      "messed": 4731,
      "message": 4732,
      "mediocre": 4733,
      "narrow": 4734,
      "renting": 4735,
      "##apping": 4736,
      "##hany": 4737,
      "##hanger": 4738,
      "##ounters": 4739,
      "tops": 4740,
      "assigned": 4741,
      "handed": 4742,
      "handled": 4743,
      "consist": 4744,
      "consists": 4745,
      "consumes": 4746,
      "conscientious": 4747,
      "failing": 4748,
      "failure": 4749,
      "remembering": 4750,
      "understanding": 4751,
      "understandable": 4752,
      "lovely": 4753,
      "boredom": 4754,
      "painfully": 4755,
      "reviewers": 4756,
      "dialogues": 4757,
      "Being": 4758,
      "Beyond": 4759,
      "Because": 4760,
      "Jewish": 4761,
      "Madison": 4762,
      "Paige": 4763,
      "Pacific": 4764,
      "Romeo": 4765,
      "Weapons": 4766,
      "Wasn": 4767,
      "bitch": 4768,
      "capture": 4769,
      "captured": 4770,
      "eyes": 4771,
      "eyed": 4772,
      "hopes": 4773,
      "hoped": 4774,
      "milk": 4775,
      "miles": 4776,
      "occupation": 4777,
      "priest": 4778,
      "primit": 4779,
      "riding": 4780,
      "slept": 4781,
      "sleazy": 4782,
      "sweet": 4783,
      "swept": 4784,
      "sweaty": 4785,
      "wrinkled": 4786,
      "wishful": 4787,
      "##ointed": 4788,
      "##rontation": 4789,
      "##efest": 4790,
      "##eficence": 4791,
      "##eemed": 4792,
      "##script": 4793,
      "##scape": 4794,
      "##notic": 4795,
      "##ypes": 4796,
      "##chet": 4797,
      "##hatically": 4798,
      "total": 4799,
      "##iels": 4800,
      "striving": 4801,
      "strikes": 4802,
      "striking": 4803,
      "severe": 4804,
      "sequence": 4805,
      "happens": 4806,
      "##ropriate": 4807,
      "attempt": 4808,
      "attacks": 4809,
      "attorney": 4810,
      "confrontation": 4811,
      "developed": 4812,
      "somewhere": 4813,
      "experienced": 4814,
      "exception": 4815,
      "enters": 4816,
      "poster": 4817,
      "posted": 4818,
      "postscript": 4819,
      "translated": 4820,
      "leads": 4821,
      "leader": 4822,
      "leaden": 4823,
      "leading": 4824,
      "manages": 4825,
      "managing": 4826,
      "yearning": 4827,
      "guessing": 4828,
      "guessed": 4829,
      "Anyway": 4830,
      "idiosyn": 4831,
      "slower": 4832,
      "imprisoned": 4833,
      "decidedly": 4834,
      "schoolmate": 4835,
      "communist": 4836,
      "communicating": 4837,
      "Johnny": 4838,
      "Johnson": 4839,
      "moments": 4840,
      "cinema": 4841,
      "Bridges": 4842,
      "Brooklyn": 4843,
      "Bloated": 4844,
      "Bloodwaters": 4845,
      "Blondie": 4846,
      "Blockbuster": 4847,
      "Elizabeth": 4848,
      "Getaway": 4849,
      "Haven": 4850,
      "Having": 4851,
      "Luz": 4852,
      "Luke": 4853,
      "Lucy": 4854,
      "Lucind": 4855,
      "McCain": 4856,
      "McGraw": 4857,
      "Performances": 4858,
      "Steve": 4859,
      "Steph": 4860,
      "acceptable": 4861,
      "accent": 4862,
      "accomp": 4863,
      "according": 4864,
      "accessible": 4865,
      "batting": 4866,
      "battle": 4867,
      "crew": 4868,
      "create": 4869,
      "detail": 4870,
      "determin": 4871,
      "details": 4872,
      "deterior": 4873,
      "distaff": 4874,
      "distinguish": 4875,
      "distribut": 4876,
      "distracted": 4877,
      "edge": 4878,
      "edgin": 4879,
      "finally": 4880,
      "famous": 4881,
      "family": 4882,
      "homes": 4883,
      "homoph": 4884,
      "helicop": 4885,
      "latte": 4886,
      "latinity": 4887,
      "lots": 4888,
      "lineup": 4889,
      "moi": 4890,
      "moan": 4891,
      "mole": 4892,
      "mojo": 4893,
      "marking": 4894,
      "novelt": 4895,
      "nicely": 4896,
      "ourselves": 4897,
      "philos": 4898,
      "parano": 4899,
      "paraphrase": 4900,
      "picked": 4901,
      "pulls": 4902,
      "pulling": 4903,
      "potentially": 4904,
      "skin": 4905,
      "skip": 4906,
      "smugg": 4907,
      "sincere": 4908,
      "simple": 4909,
      "touch": 4910,
      "valuable": 4911,
      "##nerable": 4912,
      "##ginally": 4913,
      "##ankly": 4914,
      "##reciative": 4915,
      "##lecting": 4916,
      "beautifully": 4917,
      "##stantial": 4918,
      "referen": 4919,
      "refres": 4920,
      "refuses": 4921,
      "reflecting": 4922,
      "secondary": 4923,
      "shortage": 4924,
      "worlds": 4925,
      "headed": 4926,
      "concur": 4927,
      "concepts": 4928,
      "devout": 4929,
      "device": 4930,
      "devised": 4931,
      "devices": 4932,
      "executive": 4933,
      "superb": 4934,
      "supernat": 4935,
      "politically": 4936,
      "politics": 4937,
      "trashed": 4938,
      "levels": 4939,
      "flawless": 4940,
      "flawlessly": 4941,
      "spoon": 4942,
      "spoke": 4943,
      "spoiler": 4944,
      "spoilt": 4945,
      "spirits": 4946,
      "artist": 4947,
      "artists": 4948,
      "adventures": 4949,
      "blacks": 4950,
      "blackboard": 4951,
      "terrifically": 4952,
      "Christine": 4953,
      "Christmas": 4954,
      "Christopher": 4955,
      "trained": 4956,
      "misses": 4957,
      "missed": 4958,
      "missile": 4959,
      "keeps": 4960,
      "redeemed": 4961,
      "Everyone": 4962,
      "embalm": 4963,
      "embracing": 4964,
      "wonderfully": 4965,
      "convincingly": 4966,
      "2009": 4967,
      "2000": 4968,
      "2003": 4969,
      "2001": 4970,
      "gunshot": 4971,
      "entertained": 4972,
      "idiots": 4973,
      "idiotic": 4974,
      "improved": 4975,
      "improvise": 4976,
      "cinematographer": 4977,
      "couplea": 4978,
      "ridiculousness": 4979,
      "Clark": 4980,
      "Classic": 4981,
      "Clinton": 4982,
      "Canadian": 4983,
      "Glorious": 4984,
      "Newman": 4985,
      "Oscars": 4986,
      "Phile": 4987,
      "Phenom": 4988,
      "Phantasm": 4989,
      "Shorts": 4990,
      "Shalom": 4991,
      "Shampoo": 4992,
      "Spano": 4993,
      "Surely": 4994,
      "Unless": 4995,
      "WHO": 4996,
      "Watchable": 4997,
      "airwaves": 4998,
      "aircra": 4999,
      "beneficence": 5000,
      "boys": 5001,
      "catches": 5002,
      "catching": 5003,
      "color": 5004,
      "criticism": 5005,
      "creating": 5006,
      "creative": 5007,
      "creators": 5008,
      "career": 5009,
      "doubt": 5010,
      "dribble": 5011,
      "finale": 5012,
      "follows": 5013,
      "followable": 5014,
      "gags": 5015,
      "hole": 5016,
      "luckily": 5017,
      "maritime": 5018,
      "marvelous": 5019,
      "marginally": 5020,
      "magazine": 5021,
      "modem": 5022,
      "modern": 5023,
      "modified": 5024,
      "mentioned": 5025,
      "namely": 5026,
      "ops": 5027,
      "pacingly": 5028,
      "power": 5029,
      "pleased": 5030,
      "persona": 5031,
      "personal": 5032,
      "ruin": 5033,
      "swallow": 5034,
      "swallowed": 5035,
      "swapping": 5036,
      "singer": 5037,
      "singing": 5038,
      "single": 5039,
      "suspens": 5040,
      "sickness": 5041,
      "signals": 5042,
      "tempting": 5043,
      "warmer": 5044,
      "warlord": 5045,
      "witty": 5046,
      "witness": 5047,
      "witches": 5048,
      "##rising": 5049,
      "##nails": 5050,
      "##blical": 5051,
      "##blings": 5052,
      "begging": 5053,
      "##sterically": 5054,
      "retread": 5055,
      "reporter": 5056,
      "reputation": 5057,
      "reprising": 5058,
      "replaced": 5059,
      "straight": 5060,
      "animation": 5061,
      "shoe": 5062,
      "shooting": 5063,
      "shoestring": 5064,
      "actresses": 5065,
      "heroine": 5066,
      "childishly": 5067,
      "connected": 5068,
      "ordered": 5069,
      "##pticism": 5070,
      "extent": 5071,
      "explained": 5072,
      "explode": 5073,
      "explanation": 5074,
      "weapons": 5075,
      "encounters": 5076,
      "popcorn": 5077,
      "uniform": 5078,
      "tricks": 5079,
      "fluffy": 5080,
      "throwing": 5081,
      "fairly": 5082,
      "featuring": 5083,
      "featured": 5084,
      "features": 5085,
      "Ashraf": 5086,
      "closes": 5087,
      "screaming": 5088,
      "amongst": 5089,
      "grounds": 5090,
      "despicable": 5091,
      "teenagers": 5092,
      "1995": 5093,
      "1997": 5094,
      "1994": 5095,
      "1975": 5096,
      "Seeing": 5097,
      "Seeking": 5098,
      "appreciate": 5099,
      "appreciated": 5100,
      "appreciates": 5101,
      "continuous": 5102,
      "turns": 5103,
      "##ublicans": 5104,
      "credits": 5105,
      "dramatically": 5106,
      "redundan": 5107,
      "worthlessness": 5108,
      "possessive": 5109,
      "craziness": 5110,
      "mediums": 5111,
      "Paulin": 5112,
      "captivate": 5113,
      "captivated": 5114,
      "captivating": 5115,
      "eyebrow": 5116,
      "hopelessly": 5117,
      "hopelessness": 5118,
      "militant": 5119,
      "checkpoints": 5120,
      "helped": 5121,
      "helpful": 5122,
      "novelist": 5123,
      "photo": 5124,
      "spiritual": 5125,
      "spiritism": 5126,
      "documentary": 5127,
      "awkwardly": 5128,
      "Aviv": 5129,
      "Avigdor": 5130,
      "Acting": 5131,
      "Actors": 5132,
      "Apple": 5133,
      "Apparently": 5134,
      "BAD": 5135,
      "BARB": 5136,
      "Bubble": 5137,
      "Bubonic": 5138,
      "Carter": 5139,
      "Carpent": 5140,
      "County": 5141,
      "Country": 5142,
      "Doesen": 5143,
      "Damned": 5144,
      "Damien": 5145,
      "Defense": 5146,
      "Definitely": 5147,
      "Fatal": 5148,
      "Film": 5149,
      "Films": 5150,
      "Frost": 5151,
      "Frobe": 5152,
      "Fights": 5153,
      "Gaynig": 5154,
      "Henry": 5155,
      "Henriks": 5156,
      "Horowitz": 5157,
      "HorrorFest": 5158,
      "Hills": 5159,
      "Hillary": 5160,
      "Hardison": 5161,
      "Jeepers": 5162,
      "Jefferson": 5163,
      "Jonah": 5164,
      "Julio": 5165,
      "Juliet": 5166,
      "Keaton": 5167,
      "Keitel": 5168,
      "Matrix": 5169,
      "Matthau": 5170,
      "Mexican": 5171,
      "Mexico": 5172,
      "North": 5173,
      "Plan": 5174,
      "Player": 5175,
      "Quentin": 5176,
      "Quincy": 5177,
      "RAPP": 5178,
      "RATING": 5179,
      "STILL": 5180,
      "STAR": 5181,
      "Simply": 5182,
      "Simpsons": 5183,
      "THAT": 5184,
      "THROU": 5185,
      "Totally": 5186,
      "Totem": 5187,
      "Vampire": 5188,
      "Vampires": 5189,
      "Waller": 5190,
      "author": 5191,
      "autopilot": 5192,
      "balance": 5193,
      "balanced": 5194,
      "bushy": 5195,
      "business": 5196,
      "carve": 5197,
      "carelessly": 5198,
      "cover": 5199,
      "covered": 5200,
      "criminal": 5201,
      "crippling": 5202,
      "carted": 5203,
      "cartoony": 5204,
      "caper": 5205,
      "capable": 5206,
      "conduct": 5207,
      "condition": 5208,
      "crying": 5209,
      "corny": 5210,
      "damaging": 5211,
      "dresses": 5212,
      "dressed": 5213,
      "demands": 5214,
      "demanded": 5215,
      "ersat": 5216,
      "erotic": 5217,
      "essays": 5218,
      "essentially": 5219,
      "equation": 5220,
      "equipment": 5221,
      "frolicking": 5222,
      "frozen": 5223,
      "fastest": 5224,
      "fighting": 5225,
      "fourth": 5226,
      "given": 5227,
      "giving": 5228,
      "gypsy": 5229,
      "gypsies": 5230,
      "hides": 5231,
      "hidden": 5232,
      "hateful": 5233,
      "holds": 5234,
      "irrele": 5235,
      "irritating": 5236,
      "judo": 5237,
      "judge": 5238,
      "medical": 5239,
      "meduim": 5240,
      "mascara": 5241,
      "masterful": 5242,
      "metal": 5243,
      "meteor": 5244,
      "mumble": 5245,
      "mumbling": 5246,
      "melted": 5247,
      "meltdown": 5248,
      "nuances": 5249,
      "nuisance": 5250,
      "opposed": 5251,
      "opponent": 5252,
      "oaths": 5253,
      "puke": 5254,
      "puppy": 5255,
      "praise": 5256,
      "praising": 5257,
      "persistent": 5258,
      "perspective": 5259,
      "parents": 5260,
      "psyched": 5261,
      "psychically": 5262,
      "purpose": 5263,
      "purposes": 5264,
      "sixty": 5265,
      "siblings": 5266,
      "snag": 5267,
      "snarling": 5268,
      "sales": 5269,
      "saliva": 5270,
      "square": 5271,
      "squawking": 5272,
      "traps": 5273,
      "ultra": 5274,
      "ultim": 5275,
      "wait": 5276,
      "waiting": 5277,
      "winamp": 5278,
      "winning": 5279,
      "##offerson": 5280,
      "##ralian": 5281,
      "##egna": 5282,
      "##ausible": 5283,
      "##tryside": 5284,
      "##borough": 5285,
      "##borhood": 5286,
      "##mpathy": 5287,
      "##OUS": 5288,
      "##LLY": 5289,
      "inevit": 5290,
      "ineptitude": 5291,
      "infinitely": 5292,
      "influence": 5293,
      "bearable": 5294,
      "repeat": 5295,
      "repeated": 5296,
      "releases": 5297,
      "released": 5298,
      "street": 5299,
      "streets": 5300,
      "stayed": 5301,
      "study": 5302,
      "students": 5303,
      "forgettable": 5304,
      "annoying": 5305,
      "annoyed": 5306,
      "scheme": 5307,
      "schemes": 5308,
      "hackneyed": 5309,
      "shuts": 5310,
      "dollar": 5311,
      "dollars": 5312,
      "soldier": 5313,
      "soldiers": 5314,
      "champion": 5315,
      "champagne": 5316,
      "debuting": 5317,
      "digital": 5318,
      "excuse": 5319,
      "exciting": 5320,
      "existant": 5321,
      "expression": 5322,
      "prophecy": 5323,
      "propagand": 5324,
      "necessity": 5325,
      "necessary": 5326,
      "##ophical": 5327,
      "showcase": 5328,
      "showcased": 5329,
      "fluid": 5330,
      "fluores": 5331,
      "aggression": 5332,
      "aggressive": 5333,
      "Whoever": 5334,
      "comparisons": 5335,
      "promise": 5336,
      "presented": 5337,
      "presentation": 5338,
      "arresting": 5339,
      "arrested": 5340,
      "adults": 5341,
      "blankety": 5342,
      "implications": 5343,
      "implausible": 5344,
      "terrorize": 5345,
      "terrorizing": 5346,
      "amazing": 5347,
      "amazed": 5348,
      "growl": 5349,
      "cheesy": 5350,
      "cheesefest": 5351,
      "quickly": 5352,
      "texturing": 5353,
      "tragic": 5354,
      "tragedy": 5355,
      "1941": 5356,
      "1946": 5357,
      "approached": 5358,
      "structure": 5359,
      "structuring": 5360,
      "includes": 5361,
      "including": 5362,
      "recommend": 5363,
      "recommended": 5364,
      "absurdly": 5365,
      "absurdity": 5366,
      "jokey": 5367,
      "assassin": 5368,
      "assassinated": 5369,
      "occasional": 5370,
      "occasionally": 5371,
      "confusing": 5372,
      "confused": 5373,
      "conflicts": 5374,
      "expertly": 5375,
      "expertjew": 5376,
      "transfered": 5377,
      "transference": 5378,
      "transformer": 5379,
      "transformed": 5380,
      "dumps": 5381,
      "dumped": 5382,
      "dumbstruck": 5383,
      "editor": 5384,
      "edited": 5385,
      "marketing": 5386,
      "skills": 5387,
      "weekend": 5388,
      "embarrassingly": 5389,
      "opinion": 5390,
      "opinions": 5391,
      "significant": 5392,
      "significance": 5393,
      "returns": 5394,
      "replicas": 5395,
      "replicate": 5396,
      "encourage": 5397,
      "encourages": 5398,
      "population": 5399,
      "populated": 5400,
      "sleepwalker": 5401,
      "sleepwalks": 5402,
      "photography": 5403,
      "photographed": 5404,
      "Firstly": 5405,
      "Golani": 5406,
      "dimensionally": 5407,
      "delivery": 5408,
      "delivered": 5409,
      "gangster": 5410,
      "graceful": 5411,
      "ignores": 5412,
      "ignored": 5413,
      "mountaineer": 5414,
      "tormenting": 5415,
      "violent": 5416,
      "violence": 5417,
      "briefly": 5418,
      "successful": 5419,
      "enthusiast": 5420,
      "enthusiasm": 5421,
      "environmentalism": 5422,
      "unbelievable": 5423,
      "unbelievably": 5424,
      "programs": 5425,
      "telegraphs": 5426,
      "16s": 5427,
      "8FTDF": 5428,
      "90210": 5429,
      "Aya": 5430,
      "Against": 5431,
      "About": 5432,
      "Australian": 5433,
      "Abandoned": 5434,
      "BTW": 5435,
      "Batman": 5436,
      "Bethany": 5437,
      "Burke": 5438,
      "Beverly": 5439,
      "Beautiful": 5440,
      "Believe": 5441,
      "CIA": 5442,
      "Constance": 5443,
      "Creepers": 5444,
      "Comedy": 5445,
      "Cheap": 5446,
      "Condomine": 5447,
      "California": 5448,
      "Compared": 5449,
      "Depp": 5450,
      "Directed": 5451,
      "Desperate": 5452,
      "Douglas": 5453,
      "Daniels": 5454,
      "Democrat": 5455,
      "Daggers": 5456,
      "Europe": 5457,
      "Eye": 5458,
      "Except": 5459,
      "Episode": 5460,
      "Ebersole": 5461,
      "EVP": 5462,
      "Elements": 5463,
      "Eccleston": 5464,
      "English": 5465,
      "Electronic": 5466,
      "Emphatically": 5467,
      "Frankly": 5468,
      "Feldsh": 5469,
      "Freudian": 5470,
      "Friends": 5471,
      "Fourth": 5472,
      "Fitzgerald": 5473,
      "FORTY": 5474,
      "Going": 5475,
      "Granted": 5476,
      "Giovanna": 5477,
      "Generally": 5478,
      "Garfun": 5479,
      "George": 5480,
      "HAD": 5481,
      "Hatchet": 5482,
      "Harvey": 5483,
      "Hilarious": 5484,
      "Huston": 5485,
      "Hellraiser": 5486,
      "Holland": 5487,
      "HEAD": 5488,
      "HORREND": 5489,
      "Irving": 5490,
      "Ivan": 5491,
      "Jaa": 5492,
      "Jihad": 5493,
      "Jenney": 5494,
      "Janine": 5495,
      "Jovi": 5496,
      "June": 5497,
      "Jennifer": 5498,
      "KIDD": 5499,
      "Kari": 5500,
      "Kadeem": 5501,
      "Katherine": 5502,
      "Kristofferson": 5503,
      "Kennedy": 5504,
      "Living": 5505,
      "LSD": 5506,
      "Laraine": 5507,
      "Lulu": 5508,
      "Landry": 5509,
      "London": 5510,
      "Lifetime": 5511,
      "Luckily": 5512,
      "Laughable": 5513,
      "LESS": 5514,
      "Mrs": 5515,
      "MST3K": 5516,
      "MP5": 5517,
      "MUSIC": 5518,
      "Minute": 5519,
      "Motion": 5520,
      "Movie": 5521,
      "Midge": 5522,
      "Melissa": 5523,
      "Music": 5524,
      "Mantegna": 5525,
      "Mandy": 5526,
      "Mindless": 5527,
      "Media": 5528,
      "Moyer": 5529,
      "Mooradian": 5530,
      "Muertos": 5531,
      "Next": 5532,
      "Nicholson": 5533,
      "Nablus": 5534,
      "Nemsis": 5535,
      "Oklah": 5536,
      "Obama": 5537,
      "OLD": 5538,
      "October": 5539,
      "Overall": 5540,
      "Originality": 5541,
      "P9FOS": 5542,
      "Paris": 5543,
      "Pitt": 5544,
      "Phew": 5545,
      "Paintings": 5546,
      "Passport": 5547,
      "Pictures": 5548,
      "Pierce": 5549,
      "Puerto": 5550,
      "Roeb": 5551,
      "Ryoo": 5552,
      "RUNN": 5553,
      "Rinne": 5554,
      "Renée": 5555,
      "Ricardo": 5556,
      "Rainn": 5557,
      "Richard": 5558,
      "Republicans": 5559,
      "REALLY": 5560,
      "Rupert": 5561,
      "Sykes": 5562,
      "Slightly": 5563,
      "Service": 5564,
      "Salaam": 5565,
      "Sadly": 5566,
      "Simon": 5567,
      "Stereot": 5568,
      "Special": 5569,
      "Saleem": 5570,
      "Sometimes": 5571,
      "Scheitz": 5572,
      "Superman": 5573,
      "Sentinel": 5574,
      "Two": 5575,
      "TCM": 5576,
      "TBS": 5577,
      "Torah": 5578,
      "Tarantino": 5579,
      "Tovah": 5580,
      "Taylor": 5581,
      "Tommorrow": 5582,
      "Terminator": 5583,
      "Talmudic": 5584,
      "Uma": 5585,
      "Underground": 5586,
      "Ueto": 5587,
      "Vegetab": 5588,
      "Vincent": 5589,
      "Voted": 5590,
      "Village": 5591,
      "WAY": 5592,
      "Worst": 5593,
      "Walter": 5594,
      "Woman": 5595,
      "WITH": 5596,
      "Wuhrer": 5597,
      "William": 5598,
      "Yoon": 5599,
      "Yukon": 5600,
      "YIKES": 5601,
      "Yentl": 5602,
      "Yiddish": 5603,
      "Yimou": 5604,
      "YEARS": 5605,
      "Zaat": 5606,
      "Ziyi": 5607,
      "Zombies": 5608,
      "Zacarías": 5609,
      "ZERO": 5610,
      "aka": 5611,
      "affair": 5612,
      "auteurs": 5613,
      "avoided": 5614,
      "ahhhh": 5615,
      "asteroid": 5616,
      "boasts": 5617,
      "biblical": 5618,
      "btw": 5619,
      "barrel": 5620,
      "banter": 5621,
      "break": 5622,
      "boob": 5623,
      "bullets": 5624,
      "bunch": 5625,
      "bastard": 5626,
      "bickering": 5627,
      "ballgame": 5628,
      "baseball": 5629,
      "baffled": 5630,
      "correct": 5631,
      "catastrop": 5632,
      "candidate": 5633,
      "copyright": 5634,
      "cineaste": 5635,
      "cardboard": 5636,
      "codes": 5637,
      "cells": 5638,
      "culture": 5639,
      "countryside": 5640,
      "causes": 5641,
      "dateless": 5642,
      "dancing": 5643,
      "dream": 5644,
      "dilemmas": 5645,
      "demon": 5646,
      "destroy": 5647,
      "dazzling": 5648,
      "dreadful": 5649,
      "dutifully": 5650,
      "dedication": 5651,
      "ego": 5652,
      "epic": 5653,
      "equally": 5654,
      "eerie": 5655,
      "earlier": 5656,
      "esteemed": 5657,
      "footage": 5658,
      "fuzz": 5659,
      "fragments": 5660,
      "faint": 5661,
      "fisted": 5662,
      "figured": 5663,
      "fiancée": 5664,
      "fingernails": 5665,
      "green": 5666,
      "gleefulness": 5667,
      "girly": 5668,
      "giggles": 5669,
      "glitches": 5670,
      "huge": 5671,
      "hysterically": 5672,
      "harmless": 5673,
      "history": 5674,
      "halluc": 5675,
      "harsh": 5676,
      "hypnotic": 5677,
      "hmmm": 5678,
      "ipod": 5679,
      "journal": 5680,
      "kissing": 5681,
      "kaffeine": 5682,
      "kernel": 5683,
      "luxuri": 5684,
      "launched": 5685,
      "loud": 5686,
      "ladies": 5687,
      "lustre": 5688,
      "lousy": 5689,
      "landscape": 5690,
      "loser": 5691,
      "logic": 5692,
      "matter": 5693,
      "month": 5694,
      "muttering": 5695,
      "million": 5696,
      "mishandled": 5697,
      "machine": 5698,
      "material": 5699,
      "mockery": 5700,
      "mugging": 5701,
      "medications": 5702,
      "murder": 5703,
      "nitrous": 5704,
      "nomination": 5705,
      "network": 5706,
      "nemesis": 5707,
      "naked": 5708,
      "numbing": 5709,
      "nonsensical": 5710,
      "ooze": 5711,
      "oxide": 5712,
      "options": 5713,
      "oedipal": 5714,
      "opera": 5715,
      "palette": 5716,
      "pitch": 5717,
      "panned": 5718,
      "pleads": 5719,
      "pouts": 5720,
      "pushy": 5721,
      "puddle": 5722,
      "pneumonia": 5723,
      "rattle": 5724,
      "romance": 5725,
      "rots": 5726,
      "roughing": 5727,
      "rousers": 5728,
      "random": 5729,
      "rabble": 5730,
      "rarely": 5731,
      "rubber": 5732,
      "rivalry": 5733,
      "sympathy": 5734,
      "séance": 5735,
      "senseless": 5736,
      "soul": 5737,
      "skepticism": 5738,
      "similarit": 5739,
      "sinewy": 5740,
      "sassy": 5741,
      "syncing": 5742,
      "s02e0": 5743,
      "tested": 5744,
      "tedium": 5745,
      "tailed": 5746,
      "typical": 5747,
      "ugly": 5748,
      "voilà": 5749,
      "vault": 5750,
      "vanished": 5751,
      "vulnerable": 5752,
      "villainous": 5753,
      "vindictive": 5754,
      "vigour": 5755,
      "victim": 5756,
      "vacuum": 5757,
      "wedding": 5758,
      "walking": 5759,
      "wrecks": 5760,
      "wounds": 5761,
      "wandering": 5762,
      "watering": 5763,
      "wielding": 5764,
      "zoom": 5765,
      "zero": 5766,
      "zapprud": 5767,
      "##oquy": 5768,
      "##APORT": 5769,
      "thirty": 5770,
      "thousand": 5771,
      "threadbare": 5772,
      "thickener": 5773,
      "tooth": 5774,
      "topless": 5775,
      "tossed": 5776,
      "inadequate": 5777,
      "information": 5778,
      "inappropriate": 5779,
      "inoffensive": 5780,
      "inboxes": 5781,
      "browsing": 5782,
      "bricks": 5783,
      "brigade": 5784,
      "broadcast": 5785,
      "brilliant": 5786,
      "beheaded": 5787,
      "revealed": 5788,
      "reverently": 5789,
      "revenge": 5790,
      "required": 5791,
      "retained": 5792,
      "whatever": 5793,
      "stroked": 5794,
      "stereotype": 5795,
      "stinks": 5796,
      "steadier": 5797,
      "steely": 5798,
      "foregone": 5799,
      "forbidden": 5800,
      "associated": 5801,
      "ashamedare": 5802,
      "answers": 5803,
      "seamlessly": 5804,
      "selected": 5805,
      "separated": 5806,
      "liberated": 5807,
      "limitations": 5808,
      "livestock": 5809,
      "scorned": 5810,
      "scuffle": 5811,
      "scratching": 5812,
      "scorching": 5813,
      "shaky": 5814,
      "shanties": 5815,
      "comfortable": 5816,
      "solicitous": 5817,
      "soliloquy": 5818,
      "society": 5819,
      "atomized": 5820,
      "plodding": 5821,
      "charts": 5822,
      "challenge": 5823,
      "chosen": 5824,
      "chuckles": 5825,
      "chainsaw": 5826,
      "chopped": 5827,
      "hebrew": 5828,
      "heavy": 5829,
      "conquered": 5830,
      "congruity": 5831,
      "constraints": 5832,
      "deeply": 5833,
      "depressants": 5834,
      "dependable": 5835,
      "debacle": 5836,
      "orthodox": 5837,
      "exceedingly": 5838,
      "expensive": 5839,
      "suggests": 5840,
      "summed": 5841,
      "suddenly": 5842,
      "weathered": 5843,
      "abrupt": 5844,
      "popping": 5845,
      "positive": 5846,
      "franchise": 5847,
      "unimpressive": 5848,
      "unappreciative": 5849,
      "unexplained": 5850,
      "unskillful": 5851,
      "unlikely": 5852,
      "unconvincing": 5853,
      "unhappy": 5854,
      "unvarnished": 5855,
      "unpleasant": 5856,
      "unmemorable": 5857,
      "outstanding": 5858,
      "properly": 5859,
      "prostitutes": 5860,
      "neighborhood": 5861,
      "prequels": 5862,
      "preaching": 5863,
      "premiered": 5864,
      "trucks": 5865,
      "whatsoever": 5866,
      "flashbacks": 5867,
      "intriguing": 5868,
      "intentioned": 5869,
      "intensity": 5870,
      "intrusive": 5871,
      "intellectuals": 5872,
      "knowledge": 5873,
      "complicated": 5874,
      "comprises": 5875,
      "prestige": 5876,
      "principals": 5877,
      "presumably": 5878,
      "provides": 5879,
      "spotted": 5880,
      "architectural": 5881,
      "admirable": 5882,
      "undynamic": 5883,
      "Inspector": 5884,
      "claiming": 5885,
      "cliffhanger": 5886,
      "humiliating": 5887,
      "immediately": 5888,
      "particularly": 5889,
      "investigating": 5890,
      "Children": 5891,
      "roommate": 5892,
      "spectacular": 5893,
      "undermining": 5894,
      "insipid": 5895,
      "insubstantial": 5896,
      "insufferable": 5897,
      "intermittent": 5898,
      "Antonio": 5899,
      "ambulance": 5900,
      "screenwriter": 5901,
      "obsessed": 5902,
      "obnoxious": 5903,
      "obligation": 5904,
      "obstructions": 5905,
      "deserted": 5906,
      "describes": 5907,
      "quaaludes": 5908,
      "slaughterhouse": 5909,
      "slurping": 5910,
      "technology": 5911,
      "sawblade": 5912,
      "impersonation": 5913,
      "Starbuck": 5914,
      "Storszek": 5915,
      "Regardless": 5916,
      "Regency": 5917,
      "Recognize": 5918,
      "Secret": 5919,
      "audiences": 5920,
      "misspellings": 5921,
      "misbegotten": 5922,
      "subjected": 5923,
      "subsequent": 5924,
      "Attenborough": 5925,
      "Atkinson": 5926,
      "Attourney": 5927,
      "Altogether": 5928,
      "elephant": 5929,
      "indefinsibly": 5930,
      "research": 5931,
      "crashes": 5932,
      "elaborate": 5933,
      "surrounding": 5934,
      "tribilistic": 5935,
      "inclusions": 5936,
      "incompetence": 5937,
      "relationship": 5938,
      "reluctantly": 5939,
      "newspapers": 5940,
      "Goldsmith": 5941,
      "NOOOOO": 5942,
      "Presenting": 5943,
      "disappointed": 5944,
      "disbelief": 5945,
      "employee": 5946,
      "primitive": 5947,
      "idiosyncrasy": 5948,
      "Lucinda": 5949,
      "Stephen": 5950,
      "accompanied": 5951,
      "determined": 5952,
      "deteriorated": 5953,
      "distributors": 5954,
      "edginess": 5955,
      "homophobic": 5956,
      "helicopter": 5957,
      "novelties": 5958,
      "philosophical": 5959,
      "paranoiac": 5960,
      "smuggle": 5961,
      "references": 5962,
      "refreshingly": 5963,
      "supernatural": 5964,
      "embalming": 5965,
      "Gloriously": 5966,
      "Phenomena": 5967,
      "aircrafts": 5968,
      "suspension": 5969,
      "continuously": 5970,
      "redundancy": 5971,
      "BARBRA": 5972,
      "Carpenters": 5973,
      "Gayniggers": 5974,
      "Henriksen": 5975,
      "RAPPAPORT": 5976,
      "THROUGH": 5977,
      "cripplingly": 5978,
      "ersatz": 5979,
      "irrelevance": 5980,
      "meteorite": 5981,
      "ultimately": 5982,
      "inevitable": 5983,
      "propaganda": 5984,
      "fluorescent": 5985,
      "expertjewelry": 5986,
      "Democrats": 5987,
      "Feldshuh": 5988,
      "Garfunkel": 5989,
      "HORRENDOUS": 5990,
      "KIDDING": 5991,
      "Oklahoma": 5992,
      "Roebson": 5993,
      "RUNNING": 5994,
      "Stereotypes": 5995,
      "Vegetables": 5996,
      "asteroids": 5997,
      "catastrophe": 5998,
      "hallucination": 5999,
      "journalist": 6000,
      "luxurious": 6001,
      "similarities": 6002,
      "s02e03": 6003,
      "zappruder": 6004
    }
  }
}